<pad>	0
<unk>	0
<s>	0
</s>	0
▁የ	-0
▁አ	-1
▁እ	-2
▁በ	-3
▁መ	-4
▁ለ	-5
▁ይ	-6
▁ከ	-7
▁እን	-8
▁ተ	-9
▁ያ	-10
▁ነ	-11
▁ስ	-12
▁ም	-13
▁የሚ	-14
▁ማ	-15
▁ብ	-16
▁ወ	-17
ነት	-18
▁ት	-19
ችን	-20
ቸው	-21
▁ህ	-22
▁ሰ	-23
ለው	-24
▁አይ	-25
▁ል	-26
ገር	-27
▁ደ	-28
▁ጥ	-29
ኢት	-30
▁ባ	-31
ኢትዮ	-32
▁የተ	-33
▁ሃ	-34
ጵያ	-35
▁ግ	-36
በት	-37
▁አን	-38
ኢትዮጵያ	-39
▁ሲ	-40
ዎች	-41
▁የአ	-42
▁ው	-43
▁ክ	-44
ችሁ	-45
▁ድ	-46
ል።	-47
▁እንደ	-48
▁አለ	-49
▁ቀ	-50
ስት	-51
▁ምን	-52
ሆን	-53
ንግ	-54
▁ታ	-55
ሆነ	-56
▁ዘ	-57
▁ገ	-58
▁የመ	-59
▁እየ	-60
ውን	-61
▁አስ	-62
▁በአ	-63
ምን	-64
ደር	-65
▁ሳ	-66
ደረ	-67
▁ህዝ	-68
▁ካ	-69
▁ጠ	-70
ለት	-71
▁ሊ	-72
▁የም	-73
ገባ	-74
▁እያ	-75
▁ኢትዮጵያ	-76
▁ለማ	-77
ለም	-78
ንድ	-79
▁ለመ	-80
ንም	-81
ቶች	-82
ማራ	-83
▁አል	-84
▁ጉ	-85
ህን	-86
▁ሁ	-87
▁ሚ	-88
ለን	-89
▁ነገር	-90
▁በመ	-91
▁አመ	-92
▁ቢ	-93
▁እንዲ	-94
▁ፍ	-95
፡፡	-96
▁ቤ	-97
▁የማ	-98
ትን	-99
ርት	-100
▁እንዴ	-101
ተማ	-102
▁እና	-103
▁መል	-104
በር	-105
ግና	-106
▁ቅ	-107
ተኛ	-108
ለሁ	-109
ረት	-110
▁ኢ	-111
▁የሚያ	-112
በረ	-113
ላም	-114
▁፣	-115
ሪያ	-116
▁ፈ	-117
▁እስ	-118
▁ህዝብ	-119
ድር	-120
ንተ	-121
ራት	-122
ላይ	-123
▁እኔ	-124
▁ያለው	-125
ብር	-126
ንግስት	-127
ዚህ	-128
▁በተ	-129
ላል	-130
▁እንዳ	-131
ዲስ	-132
▁መስ	-133
ጣም	-134
▁ጀ	-135
▁አብ	-136
▁ያለ	-137
▁የት	-138
ሰብ	-139
▁ስለ	-140
ሄር	-141
ርስ	-142
▁ን	-143
ልጽ	-144
ያን	-145
ሆኑ	-146
ነው	-147
▁ሙ	-148
▁እው	-149
▁አንተ	-150
ልል	-151
▁በጣም	-152
▁ሳይ	-153
▁ሌ	-154
ዋል	-155
ጊዜ	-156
▁ኣ	-157
ም።	-158
▁ይሄ	-159
ልን	-160
ግራ	-161
▁ባለ	-162
ቅር	-163
▁ሆ	-164
መስ	-165
▁ዝ	-166
ልቅ	-167
ግር	-168
ፈል	-169
ገራ	-170
▁ዋ	-171
▁ስራ	-172
▁የእ	-173
▁ኦ	-174
▁።	-175
ድረ	-176
▁አላ	-177
ሰራ	-178
▁ቆ	-179
▁የወ	-180
▁የነ	-181
ቱን	-182
ለህ	-183
▁እንጂ	-184
ናል	-185
ናት	-186
ስተ	-187
▁መን	-188
ሁን	-189
▁በእ	-190
ብሄር	-191
ረው	-192
▁ማን	-193
▁እኮ	-194
▁ጊዜ	-195
▁በማ	-196
▁የኢትዮጵያ	-197
መን	-198
▁ፓ	-199
▁እየተ	-200
ለቲ	-201
▁ብሎ	-202
ላት	-203
▁ፖ	-204
ሪዎች	-205
▁አማራ	-206
▁ች	-207
▁ምክ	-208
▁መንግስት	-209
ሃት	-210
ግዚ	-211
▁የሰ	-212
ቸውን	-213
▁ብዙ	-214
ርቲ	-215
ኛው	-216
▁ሃይ	-217
ሚያ	-218
ጀመ	-219
▁ሞ	-220
▁ጎ	-221
ታል	-222
▁ጉዳ	-223
▁የምት	-224
በል	-225
▁ማለት	-226
▁ምር	-227
ምህ	-228
▁የህ	-229
የት	-230
ገድ	-231
ፊት	-232
ሪካ	-233
▁ቤት	-234
▁እር	-235
▁አበ	-236
▁አት	-237
ታወ	-238
▁ላ	-239
ደራ	-240
▁አስተ	-241
▁ቁ	-242
▁እድ	-243
▁አዲስ	-244
▁ኮ	-245
▁አካ	-246
ካም	-247
▁አመት	-248
▁እንዴት	-249
ታው	-250
ለች	-251
ማት	-252
ባል	-253
ድን	-254
ባት	-255
▁አም	-256
ገው	-257
▁ቀን	-258
ልጽግና	-259
▁እውነት	-260
ረጃ	-261
▁ጥሩ	-262
ቅም	-263
ጣን	-264
▁ልጅ	-265
ሉት	-266
▁ዳ	-267
ተው	-268
ግዚአ	-269
ልም	-270
ምር	-271
ጦር	-272
ችንን	-273
▁አያ	-274
▁ትልቅ	-275
▁ር	-276
▁ብር	-277
▁ያስ	-278
▁የማይ	-279
ግዚአብሄር	-280
▁ነዉ	-281
▁ነው	-282
▁ለምን	-283
▁ክልል	-284
መጣ	-285
ንት	-286
አት	-287
ገል	-288
▁ከፍ	-289
ኖር	-290
ኞች	-291
▁አሳ	-292
▁ሰላም	-293
ሰማ	-294
ለቲካ	-295
▁ቦ	-296
▁መልካም	-297
ቀር	-298
▁ጋ	-299
ላችሁ	-300
ታቸው	-301
ግራይ	-302
ወጣ	-303
▁የለም	-304
ክል	-305
▁ዶ	-306
▁እነ	-307
▁እኛ	-308
▁ዜ	-309
▁ጭ	-310
▁አው	-311
ግባ	-312
▁ራ	-313
▁ጨ	-314
▁ከመ	-315
▁ሆነ	-316
▁ያል	-317
▁ሥ	-318
▁ቃ	-319
▁ለአ	-320
▁በር	-321
▁አበባ	-322
▁በሚ	-323
ስፋ	-324
▁ይህን	-325
▁ከአ	-326
መለ	-327
ሮሞ	-328
▁ሽ	-329
ሎች	-330
ረዳ	-331
▁ጸ	-332
ላቸው	-333
ከተማ	-334
▁የሃ	-335
ታት	-336
▁የው	-337
▁፡፡	-338
ስራ	-339
ገን	-340
▁ፕ	-341
ያኔ	-342
ራዊ	-343
▁መሰ	-344
▁እንዲህ	-345
▁ቡ	-346
ወሃት	-347
▁ኤ	-348
▁ጽ	-349
▁ከተማ	-350
ረስ	-351
ሮች	-352
▁ደስ	-353
▁ፓርቲ	-354
ታችን	-355
▁ድር	-356
ሪክ	-357
ጥር	-358
▁ይገባ	-359
▁ምንም	-360
ራል	-361
ኛል	-362
ዲያ	-363
▁ተማ	-364
ክራ	-365
▁ስል	-366
▁በሰ	-367
▁ተወ	-368
▁ግን	-369
▁በላይ	-370
ደል	-371
▁ለሃ	-372
▁ከተ	-373
መሰ	-374
ያቄ	-375
▁ሌላ	-376
▁ስት	-377
ትህ	-378
▁አር	-379
ረን	-380
ንያ	-381
መድ	-382
ባቸው	-383
ሱን	-384
ታዊ	-385
▁ስር	-386
▁ጥያቄ	-387
▁የአማራ	-388
ማር	-389
ክት	-390
ይወ	-391
ደው	-392
ገና	-393
▁ሸ	-394
▁ና	-395
ርስቲ	-396
▁መብ	-397
▁የሆነ	-398
መር	-399
ከል	-400
▁ሴ	-401
▁ማስ	-402
▁አይነት	-403
▁ብልጽግና	-404
ጠብ	-405
▁አሜ	-406
▁አባ	-407
▁አለበት	-408
ራን	-409
▁በደ	-410
▁አደ	-411
▁ወደ	-412
ምህርት	-413
ባቢ	-414
ፋት	-415
▁በሃ	-416
▁አብይ	-417
▁ጉዳይ	-418
▁እግዚአብሄር	-419
ዝብ	-420
▁መሪ	-421
ሃል	-422
ሳብ	-423
ሳት	-424
▁ተስፋ	-425
ነግ	-426
▁በህ	-427
▁በየ	-428
▁ተጠ	-429
▁ነኝ	-430
▁አህ	-431
ቦች	-432
ዳን	-433
▁ጌ	-434
▁ቤተ	-435
▁አደረ	-436
ሩት	-437
ስሊ	-438
ቀው	-439
ኝነት	-440
▁ደሞ	-441
ጀመሪያ	-442
▁ሳይሆን	-443
መል	-444
ከላ	-445
ዎችን	-446
▁ነጻ	-447
▁ከእ	-448
▁የኢ	-449
▁ችግር	-450
▁አድር	-451
▁እንደሚ	-452
ሰው	-453
ጠበ	-454
▁መቀ	-455
▁በቀ	-456
▁እጅ	-457
▁ዋጋ	-458
▁ረ	-459
▁ካል	-460
▁ድን	-461
ሩን	-462
▁፡	-463
ራው	-464
ነቱ	-465
ጆች	-466
ጨረ	-467
▁አፍ	-468
▁ወን	-469
▁ይሁን	-470
ሸት	-471
ዛሬ	-472
ደት	-473
ዲሱ	-474
▁ሲያ	-475
▁ክፍ	-476
ህል	-477
ለኝ	-478
ምሮ	-479
ገራችን	-480
ያው	-481
ይት	-482
ድረግ	-483
ርድ	-484
▁ዩ	-485
▁መር	-486
▁ነህ	-487
▁የበ	-488
▁ነበር	-489
ኋላ	-490
▁መግ	-491
ንን	-492
ገኘ	-493
▁ጦር	-494
ኖች	-495
▁ወያኔ	-496
ረጋ	-497
ሽን	-498
ዜማ	-499
ጣት	-500
▁ምርጫ	-501
▁በፊት	-502
▁የዘ	-503
▁ፕሮ	-504
ርያ	-505
▁እም	-506
▁አገር	-507
ላው	-508
ሰባ	-509
▁መቼ	-510
▁ተከ	-511
ኒቨ	-512
ንያት	-513
▁ልዩ	-514
▁ማህ	-515
▁በት	-516
▁ትን	-517
▁ዘር	-518
▁መሆኑ	-519
▁መሆን	-520
▁በዚህ	-521
ጠው	-522
▁የቀ	-523
▁የባ	-524
▁የኦ	-525
ሉም	-526
ልድ	-527
ስብ	-528
ብረ	-529
ግል	-530
ጨረሻ	-531
▁ልክ	-532
__	-533
ዮች	-534
ዮን	-535
ጋት	-536
ፈር	-537
▁ሊያ	-538
▁ስም	-539
▁ይች	-540
▁ከሆነ	-541
▁መንገድ	-542
ሳይ	-543
ብን	-544
ፈው	-545
▁ሠ	-546
▁ይመስ	-547
in	-548
ዎቹ	-549
ጣሪ	-550
▁ቃል	-551
▁ተቀ	-552
▁አሁ	-553
▁የታ	-554
▁የሚል	-555
▁የከተማ	-556
ቀት	-557
ንዳ	-558
ጠር	-559
ቻችን	-560
▁ቦታ	-561
ረጥ	-562
ስል	-563
ቃት	-564
ነሳ	-565
▁ለእ	-566
▁በል	-567
▁ሃይል	-568
ሄድ	-569
መው	-570
ቤት	-571
ተር	-572
▁ስብ	-573
▁ከማ	-574
▁ውይ	-575
▁መረጃ	-576
▁ከፍተኛ	-577
▁ኢትዮጵያዊ	-578
ዘጋ	-579
ገሪ	-580
ፍት	-581
▁በግ	-582
▁አሉ	-583
▁ዝም	-584
▁ታሪክ	-585
▁አይደ	-586
ሞች	-587
ሻል	-588
ኩል	-589
ዳጅ	-590
▁እሱ	-591
▁ግድ	-592
▁አዲሱ	-593
▁ወንድ	-594
▁አሁንም	-595
ቢያ	-596
ፈለ	-597
ሆና	-598
ሎት	-599
ሰን	-600
ቀጥ	-601
ክር	-602
ገደ	-603
▁፤	-604
ላችን	-605
ዋል።	-606
ፈልጋ	-607
▁ሁኔ	-608
▁በነ	-609
an	-610
ሉን	-611
ስጥ	-612
በው	-613
ባሪ	-614
ወቅ	-615
▁ዞ	-616
▁ፋ	-617
ክራሲ	-618
▁ነገ	-619
▁መንግ	-620
▁ሙስሊ	-621
▁ህወሃት	-622
▁ምክንያት	-623
ሳስ	-624
ባለ	-625
የው	-626
ጠኛ	-627
ጣል	-628
▁አቶ	-629
▁ጌታ	-630
▁ሃሳብ	-631
ለያ	-632
ልፍ	-633
ሰጥ	-634
ስን	-635
በላ	-636
ችሁን	-637
▁መጠ	-638
▁መጥ	-639
▁በም	-640
▁ተብ	-641
▁አሸ	-642
▁እረ	-643
▁የግ	-644
▁ያው	-645
▁አሜን	-646
ተን	-647
ችል	-648
ናው	-649
ዶች	-650
▁ለህ	-651
▁ምስ	-652
ፖለቲካ	-653
ሥት	-654
ሬት	-655
የር	-656
ድሃ	-657
▁ኖ	-658
▁እራ	-659
▁ዘመ	-660
▁የሌ	-661
▁ህይወ	-662
▁በኋላ	-663
▁አንዱ	-664
ችው	-665
ንክ	-666
ከር	-667
ገልግ	-668
ፖርት	-669
▁ሆይ	-670
▁ለው	-671
▁ውድ	-672
▁ውጤ	-673
▁የለ	-674
▁የኔ	-675
▁እያለ	-676
▁የምን	-677
▁ግንባ	-678
ንብ	-679
▁T	-680
▁ዲ	-681
ኛውም	-682
ደረግ	-683
▁ሚኒ	-684
▁አታ	-685
▁አጥ	-686
▁ከሚ	-687
▁ወይ	-688
▁ከዚህ	-689
▁ግልጽ	-690
▁በሰላም	-691
ትና	-692
ጤና	-693
▁ነፍ	-694
▁የራ	-695
▁ያሳ	-696
▁ደም	-697
▁ሁኔታ	-698
▁ዩኒቨ	-699
▁ይሆን	-700
▁እንዳይ	-701
ሃን	-702
ልኝ	-703
ማሪ	-704
በቃ	-705
ቡን	-706
ዳር	-707
ነትን	-708
▁ሙሉ	-709
▁በአል	-710
▁የትግራይ	-711
th	-712
ልህ	-713
ኤል	-714
ከራ	-715
ገኙ	-716
▁ቴ	-717
▁ጅ	-718
ናገር	-719
▁ብት	-720
▁ብዬ	-721
▁አሰ	-722
▁አቀ	-723
▁ከነ	-724
▁ፖሊ	-725
▁የለው	-726
ታይ	-727
ናገ	-728
ዘብ	-729
ጥታ	-730
ላል።	-731
ብረት	-732
ግባር	-733
▁ባል	-734
▁ነን	-735
▁ዜና	-736
▁ብለህ	-737
▁ዘንድ	-738
▁እናንተ	-739
▁የሚለው	-740
▁እንደሆነ	-741
ia	-742
ራሽ	-743
በሩ	-744
ዱስ	-745
ጠራ	-746
▁ትር	-747
▁አረ	-748
▁አንድ	-749
▁ዘመን	-750
▁ጀግና	-751
ማኖ	-752
ነስ	-753
ኮኖ	-754
ገኛ	-755
▁ሂ	-756
ሳችሁ	-757
ናንተ	-758
▁ስን	-759
▁ነጋ	-760
▁የደ	-761
ለጫ	-762
ረኛ	-763
ጅት	-764
▁A	-765
▁s	-766
▁ለተ	-767
▁ሰው	-768
▁አድ	-769
▁የዲ	-770
▁ጠቅ	-771
ሞክራሲ	-772
▁አለው	-773
▁እድል	-774
▁የመንግስት	-775
ህር	-776
ላማ	-777
ላክ	-778
ከው	-779
▁ሶ	-780
ውያን	-781
▁ህግ	-782
▁ንግ	-783
▁ገብ	-784
▁ገና	-785
▁ምክር	-786
▁ይቅር	-787
▁ነበር።	-788
▁የነበረ	-789
ለይ	-790
መራ	-791
ምት	-792
ባይ	-793
ከት	-794
ደብ	-795
ሄራዊ	-796
ከላከ	-797
▁ለነ	-798
▁ባይ	-799
▁የብ	-800
▁የገ	-801
▁ጠን	-802
▁ያህል	-803
▁ኢትዮጵያን	-804
er	-805
ለማ	-806
ላፊ	-807
ምና	-808
ገኝ	-809
ጠል	-810
ጠቀ	-811
ጠና	-812
ፈጸ	-813
▁ጫ	-814
ርያም	-815
ንደር	-816
ኮኖሚ	-817
▁በቃ	-818
▁በወ	-819
▁ነዋ	-820
▁ወሬ	-821
▁ልጆች	-822
▁ብሄር	-823
▁ብለው	-824
▁አካባቢ	-825
▁ያለውን	-826
▁ፖለቲካ	-827
on	-828
ሙሉ	-829
ስታ	-830
ተት	-831
የን	-832
ፈን	-833
▁ሱ	-834
▁ልብ	-835
▁ካለ	-836
▁እንድ	-837
ar	-838
ላቅ	-839
ልክ	-840
ማይ	-841
ተና	-842
ከተ	-843
ኩት	-844
ደግ	-845
ጠት	-846
ለሁ።	-847
ደረገ	-848
ጠበቅ	-849
▁በው	-850
▁አጋ	-851
▁ድም	-852
▁ክብር	-853
▁አገልግ	-854
▁ተማሪዎች	-855
▁ለኢትዮጵያ	-856
ህና	-857
ብት	-858
ያስ	-859
ጠን	-860
ለን።	-861
ዳደር	-862
▁ሁሌ	-863
▁በፍ	-864
▁ትክ	-865
▁ናት	-866
▁አክ	-867
▁ወቅ	-868
▁እስኪ	-869
▁ኦሮሞ	-870
▁ትምህርት	-871
ንስ	-872
ዋር	-873
ፈጥ	-874
▁ኛ	-875
ሁሉም	-876
ጂታል	-877
▁ህጻ	-878
▁ወር	-879
▁ቅዱስ	-880
▁ነበረ	-881
▁አለም	-882
▁አልተ	-883
▁አህመድ	-884
ou	-885
ሉ።	-886
ሱም	-887
ቂያ	-888
ቹን	-889
ዋን	-890
ውም	-891
ገነ	-892
ግብ	-893
▁ፌ	-894
▁ተቋ	-895
▁አዋ	-896
▁ከባ	-897
▁የል	-898
▁ያሉ	-899
▁ድል	-900
▁ግለ	-901
▁ትንሽ	-902
▁የስራ	-903
▁ድረስ	-904
▁የሚያስ	-905
▁የኦሮሞ	-906
▁ጦርነት	-907
▁የፖለቲካ	-908
▁ይገባል።	-909
ረብ	-910
ርሲ	-911
ዋት	-912
ገት	-913
ግሬ	-914
ህሳስ	-915
ቶችን	-916
ንድር	-917
ደርጋ	-918
▁ምና	-919
▁ራስ	-920
ላችንም	-921
▁እስክ	-922
▁እንግ	-923
▁የሚሰ	-924
▁ለሃገር	-925
▁ስርአት	-926
▁በኢትዮጵያ	-927
is	-928
ለጠ	-929
ርቶ	-930
አዴ	-931
ከፍ	-932
ክስ	-933
ዚያ	-934
ጠይ	-935
ጡት	-936
▁በረ	-937
▁በዘ	-938
▁ገን	-939
ከላከያ	-940
▁ተማሪ	-941
መረ	-942
በብ	-943
ብራ	-944
ቷል	-945
ኑን	-946
ዎን	-947
ገዛ	-948
ርትራ	-949
ድሃኒ	-950
ጥረት	-951
▁አማ	-952
▁እባ	-953
▁ከወ	-954
▁ይቀ	-955
▁ሃላፊ	-956
▁ይላል	-957
መት	-958
ጠፋ	-959
▁ሄ	-960
▁ኩ	-961
ሜሪካ	-962
▁ማለ	-963
▁ተራ	-964
▁ክፉ	-965
▁የሞ	-966
▁ፍቅር	-967
▁የህዝብ	-968
ህም	-969
ደን	-970
ደኛ	-971
ዲህ	-972
ጠቅ	-973
ፈጠ	-974
▁ኪ	-975
▁ዱ	-976
▁መለ	-977
▁ወሳ	-978
▁ጉድ	-979
▁ሰአት	-980
▁ኢትዮ	-981
▁ኢዜማ	-982
▁ፈጣሪ	-983
▁ማርያም	-984
▁ታህሳስ	-985
▁ውይይት	-986
▁አለበት።	-987
at	-988
ሻሻ	-989
ቃል	-990
ቢይ	-991
▁ሜ	-992
▁ፎ	-993
ደርግ	-994
ገሪቱ	-995
▁መካ	-996
▁ስላ	-997
▁ወጣ	-998
▁ጋዜ	-999
▁ግዜ	-1000
▁ሃገራ	-1001
▁ልማት	-1002
▁አንዳ	-1003
▁እድሜ	-1004
▁መሆኑን	-1005
me	-1006
ቤተ	-1007
ታም	-1008
ናዊ	-1009
ኖሩ	-1010
ከለ	-1011
ጉት	-1012
ግን	-1013
ፈረ	-1014
ፈራ	-1015
▁E	-1016
▁ሪ	-1017
ርሲቲ	-1018
▁ሞት	-1019
▁ችግ	-1020
▁ማንም	-1021
▁በሙሉ	-1022
▁ትግራይ	-1023
▁የአዲስ	-1024
▁የዲጂታል	-1025
ላሉ	-1026
ቀል	-1027
ብኝ	-1028
ቦት	-1029
ነፍ	-1030
ኑሮ	-1031
ወር	-1032
ደቱ	-1033
ድም	-1034
ገሬ	-1035
ጋራ	-1036
ጋይ	-1037
▁ሺ	-1038
▁ዉ	-1039
ሮሚያ	-1040
▁በስ	-1041
▁በታ	-1042
▁በጎ	-1043
▁ለማን	-1044
▁መቼም	-1045
▁አደጋ	-1046
▁እንቅ	-1047
▁እውነ	-1048
▁ከባድ	-1049
▁የተሰ	-1050
▁ግብር	-1051
▁ፍትህ	-1052
or	-1053
ለመ	-1054
ለጋ	-1055
ማን	-1056
ንታ	-1057
ዛት	-1058
ሳቸው	-1059
በትን	-1060
▁ሰይ	-1061
▁ብለ	-1062
▁አዳ	-1063
▁ይዞ	-1064
▁መሬት	-1065
▁ቁጥር	-1066
▁ወሳኝ	-1067
▁ይሄን	-1068
▁ህይወት	-1069
▁ስልጣን	-1070
▁ይገባል	-1071
ቁር	-1072
ቻል	-1073
ነቅ	-1074
ወሰ	-1075
ገለ	-1076
ጽሃ	-1077
▁ቋ	-1078
▁ጣ	-1079
ማኖት	-1080
▁ለሚ	-1081
▁መመ	-1082
▁መደ	-1083
▁ደግ	-1084
ድሃኒት	-1085
▁መብት	-1086
▁እስከ	-1087
▁እስካ	-1088
▁ውሸት	-1089
▁ይበል	-1090
▁ደረጃ	-1091
▁ስብሰባ	-1092
▁አምላክ	-1093
▁መጀመሪያ	-1094
al	-1095
ምጃ	-1096
ቆራ	-1097
ብይ	-1098
ክህ	-1099
ወዳ	-1100
ውና	-1101
ጀት	-1102
ገረ	-1103
ጎች	-1104
▁ኡ	-1105
ባለው	-1106
ውልድ	-1107
▁ሰብ	-1108
▁ሲል	-1109
▁ቀጥ	-1110
▁በራ	-1111
▁ብላ	-1112
▁ግራ	-1113
▁ጨዋ	-1114
ህንነት	-1115
▁ሚዲያ	-1116
▁ወንጀ	-1117
▁መግለጫ	-1118
▁ስለሆነ	-1119
▁ይችላል	-1120
▁እስክንድር	-1121
ሰር	-1122
ቆም	-1123
ከፋ	-1124
ክለ	-1125
▁ዙ	-1126
▁ጃ	-1127
ስትር	-1128
▁መዝ	-1129
▁ቆይ	-1130
▁በጥ	-1131
▁ዞን	-1132
▁ሁለት	-1133
▁ሁሌም	-1134
▁ሲሆን	-1135
▁ታላቅ	-1136
▁እናም	-1137
▁ወይስ	-1138
ርስቲያን	-1139
▁ማድረግ	-1140
▁አገልግሎት	-1141
▁የትምህርት	-1142
ሁት	-1143
ላላ	-1144
ሞት	-1145
ሮም	-1146
ቀቅ	-1147
ቃሚ	-1148
ከረ	-1149
ከብ	-1150
ወራ	-1151
ድሞ	-1152
ፋር	-1153
በረታ	-1154
ቸዋል	-1155
ድነው	-1156
▁ሥራ	-1157
▁ሴት	-1158
▁ቢያ	-1159
▁ኖሮ	-1160
▁የፍ	-1161
▁ይባ	-1162
▁ይዘ	-1163
▁ድጋ	-1164
▁ገለ	-1165
▁መልእ	-1166
▁ናችሁ	-1167
▁አመራ	-1168
▁እጅግ	-1169
▁የሰው	-1170
▁ጥቅም	-1171
▁እንደተ	-1172
▁እጥረት	-1173
▁ጠቅላይ	-1174
ሃይ	-1175
ልና	-1176
መጥ	-1177
ሙት	-1178
ቸዉ	-1179
ዲን	-1180
▁ጓ	-1181
ለቲከ	-1182
▁ህመ	-1183
▁ላይ	-1184
▁ሚሊ	-1185
▁አቅ	-1186
▁አቋ	-1187
▁ግብ	-1188
▁ስንት	-1189
▁ቡድን	-1190
▁ተብሎ	-1191
▁እኔም	-1192
▁ወረዳ	-1193
▁በተለይ	-1194
▁ብሄራዊ	-1195
▁አይደል	-1196
▁እርምጃ	-1197
▁ገንዘብ	-1198
ለቅ	-1199
ለድ	-1200
ማማ	-1201
ረድ	-1202
ሻለ	-1203
ብህ	-1204
ካሄ	-1205
ጲያ	-1206
ፈስ	-1207
ህአዴ	-1208
ለበት	-1209
ራቸው	-1210
ካባቢ	-1211
ፈልግ	-1212
▁ቅድ	-1213
▁ተን	-1214
▁ነሽ	-1215
▁አና	-1216
▁ወዳ	-1217
▁የኛ	-1218
▁አቢይ	-1219
▁አንቺ	-1220
▁ይልቅ	-1221
▁መንግሥት	-1222
▁የመጀመሪያ	-1223
ሙን	-1224
ርክ	-1225
ሱስ	-1226
ተህ	-1227
ነሱ	-1228
ንቃ	-1229
ገሩ	-1230
ጹም	-1231
▁መታ	-1232
▁በቂ	-1233
▁ወጥ	-1234
▁የቆ	-1235
▁ገዳ	-1236
በረሰብ	-1237
ደረገው	-1238
▁ለውጥ	-1239
▁ምነው	-1240
▁በርቱ	-1241
▁አካል	-1242
▁ውጤት	-1243
▁በአንድ	-1244
▁አመታት	-1245
▁አይደለም	-1246
▁ያስፈልጋ	-1247
es	-1248
ha	-1249
ላቻ	-1250
ላዊ	-1251
ቲቪ	-1252
ኘት	-1253
ኧረ	-1254
ከታ	-1255
ኪና	-1256
ያዝ	-1257
ይና	-1258
ድብ	-1259
ጫወ	-1260
▁c	-1261
▁v	-1262
▁ቻ	-1263
ተኛው	-1264
ታል።	-1265
ቷል።	-1266
ክተር	-1267
▁ለወ	-1268
▁ሰር	-1269
▁በሌ	-1270
▁በብ	-1271
▁ክል	-1272
▁ውሃ	-1273
▁ዝግ	-1274
▁የስ	-1275
▁ደጋ	-1276
____	-1277
▁እያሉ	-1278
▁እምነት	-1279
▁እንዲያ	-1280
en	-1281
op	-1282
ላለ	-1283
መና	-1284
ምራ	-1285
ረተ	-1286
ቅድ	-1287
ቡር	-1288
ካራ	-1289
ዘን	-1290
ፉን	-1291
▁_	-1292
▁b	-1293
▁ጁ	-1294
መለስ	-1295
ንግድ	-1296
▁ሆኗ	-1297
▁ለሁ	-1298
▁ለም	-1299
▁ለት	-1300
▁ለዘ	-1301
▁ሌባ	-1302
▁መነ	-1303
▁መጣ	-1304
▁ተገ	-1305
▁ኧረ	-1306
▁ወገ	-1307
▁ይበ	-1308
▁ጥር	-1309
▁በምን	-1310
▁ተመል	-1311
▁እስቲ	-1312
▁የወጣ	-1313
▁ደስታ	-1314
▁ድምጽ	-1315
▁ለማለት	-1316
▁በአማራ	-1317
▁የነዳጅ	-1318
▁ይህንን	-1319
▁ደህንነት	-1320
ማል	-1321
ም፣	-1322
ራፊ	-1323
ቅና	-1324
ኝ።	-1325
ደገ	-1326
▁I	-1327
▁O	-1328
ማርኛ	-1329
ያየት	-1330
ፍትሄ	-1331
▁ሁላ	-1332
▁መው	-1333
▁ማሳ	-1334
▁ሰጥ	-1335
▁የጎ	-1336
▁የጥ	-1337
▁ገበ	-1338
▁ለዚህ	-1339
▁አህመ	-1340
▁አስፈ	-1341
▁እናት	-1342
▁የምታ	-1343
▁ፈተና	-1344
▁አሜሪካ	-1345
▁እናመሰ	-1346
ሃኑ	-1347
ለቀ	-1348
ርማ	-1349
ርሶ	-1350
ቀረ	-1351
ቁት	-1352
ቃይ	-1353
ቱም	-1354
ንቀ	-1355
እራ	-1356
ጎት	-1357
ፉት	-1358
▁ኳ	-1359
▁ጆ	-1360
▁ፊ	-1361
ምርጫ	-1362
ሰቦች	-1363
ታወቀ	-1364
ኖረው	-1365
ውነት	-1366
ደረሰ	-1367
ጠብቅ	-1368
▁መሳ	-1369
▁መና	-1370
▁በኢ	-1371
▁በክ	-1372
▁ተጽ	-1373
▁እሺ	-1374
▁የድ	-1375
▁ገቢ	-1376
▁ለማስ	-1377
▁ምርጥ	-1378
▁ኦነግ	-1379
▁ክፍል	-1380
▁የምና	-1381
▁ደህና	-1382
▁ጀምሮ	-1383
▁መሰረት	-1384
▁በደንብ	-1385
▁ኢኮኖሚ	-1386
▁የሃገር	-1387
▁ግንባታ	-1388
▁የአሜሪካ	-1389
▁አደረሳችሁ	-1390
oo	-1391
ሳል	-1392
ቅን	-1393
ወድ	-1394
ዛው	-1395
ገቡ	-1396
▁D	-1397
▁t	-1398
ምነት	-1399
ምንት	-1400
ታችሁ	-1401
ችልም	-1402
▁ቆን	-1403
▁ተመ	-1404
▁የኤ	-1405
▁ዳር	-1406
▁ህዝቡ	-1407
▁ባህር	-1408
▁ብለን	-1409
▁አላማ	-1410
▁አቅር	-1411
▁እነሱ	-1412
▁ያልተ	-1413
▁አሸባሪ	-1414
▁የለውም	-1415
▁ፖለቲከ	-1416
▁አንዳንድ	-1417
▁አንድነት	-1418
▁እናመሰግና	-1419
▁ዩኒቨርሲቲ	-1420
▁ኢትዮጵያውያን	-1421
it	-1422
st	-1423
ሃሃ	-1424
ረግ	-1425
ሰቡ	-1426
ሸን	-1427
ባብ	-1428
ንደ	-1429
ከሰ	-1430
ዳል	-1431
ገብ	-1432
ገጥ	-1433
ጉም	-1434
▁P	-1435
▁ህገ	-1436
▁ለብ	-1437
▁ስታ	-1438
▁በቁ	-1439
▁በኦ	-1440
▁ትእ	-1441
▁አግ	-1442
▁ኢን	-1443
▁ዋና	-1444
▁ዛሬ	-1445
▁ያላ	-1446
▁ይሰ	-1447
▁ገጽ	-1448
▁ጠይ	-1449
▁ፎቶ	-1450
ህአዴግ	-1451
ከተማዋ	-1452
▁መድረ	-1453
▁እኩል	-1454
▁ወቅት	-1455
▁የገባ	-1456
▁ጠላት	-1457
▁ጥቃት	-1458
▁ጨዋታ	-1459
▁ነው፡፡	-1460
▁ንብረት	-1461
▁አፍሪካ	-1462
▁የሚገር	-1463
ic	-1464
ሏል	-1465
ሰሩ	-1466
ሳሌ	-1467
ባዊ	-1468
ካሪ	-1469
ውል	-1470
ዱን	-1471
ጠቃ	-1472
▁B	-1473
▁ሹ	-1474
ራንስ	-1475
ርስቶ	-1476
ቻቸው	-1477
የሱስ	-1478
▁ለሌ	-1479
▁ምላ	-1480
▁ስኬ	-1481
▁አሻ	-1482
▁ከበ	-1483
▁ካላ	-1484
▁ህመም	-1485
▁ሌሎች	-1486
▁ማስተ	-1487
▁በቅር	-1488
▁አለመ	-1489
▁አለማ	-1490
▁አብሮ	-1491
▁የውጭ	-1492
▁ህዝቡን	-1493
▁መካከል	-1494
▁ምናምን	-1495
▁ስራዎች	-1496
▁አለው።	-1497
▁አንተም	-1498
▁አንተን	-1499
▁የሌለው	-1500
▁መልእክት	-1501
▁እንደዚህ	-1502
▁ዩኒቨርስቲ	-1503
ላን	-1504
መጡ	-1505
ሜን	-1506
ረር	-1507
ስህ	-1508
ቀም	-1509
በራ	-1510
ንቋ	-1511
ወስ	-1512
ው።	-1513
ዎት	-1514
ዝም	-1515
ጠሩ	-1516
▁C	-1517
▁M	-1518
▁N	-1519
▁S	-1520
▁m	-1521
▁p	-1522
▁ቱ	-1523
▁ዛ	-1524
ing	-1525
ነቱን	-1526
▁ሁለ	-1527
▁ልት	-1528
▁መም	-1529
▁መተ	-1530
▁ተቃ	-1531
▁ተጋ	-1532
▁ከህ	-1533
▁ኮሚ	-1534
▁የጠ	-1535
▁የፈ	-1536
▁ድሮ	-1537
▁ጤና	-1538
▁ፍት	-1539
ታቸውን	-1540
▁ሊሆን	-1541
▁መልኩ	-1542
▁መስሎ	-1543
▁ባንዳ	-1544
▁ነው፣	-1545
▁አባት	-1546
▁ድጋፍ	-1547
▁መፍትሄ	-1548
▁ትክክል	-1549
▁አይቀር	-1550
▁የሚባል	-1551
▁መከላከያ	-1552
▁የህወሃት	-1553
▁የመጨረሻ	-1554
▁ማህበረሰብ	-1555
▁እናመሰግናለን	-1556
ሁድ	-1557
መነ	-1558
ረፍ	-1559
ሪፍ	-1560
ስቱ	-1561
ቀን	-1562
በለ	-1563
ቡብ	-1564
ባኤ	-1565
ቤቱ	-1566
ታማ	-1567
ቴር	-1568
አል	-1569
እኖ	-1570
ውቅ	-1571
ዳት	-1572
ጉን	-1573
▁f	-1574
▁ሉ	-1575
ርስዎ	-1576
ኩረት	-1577
ጨማሪ	-1578
ጽሃፍ	-1579
ፍረስ	-1580
▁ለካ	-1581
▁ራሱ	-1582
▁ኣይ	-1583
▁እህ	-1584
▁ከም	-1585
▁ከጎ	-1586
▁ውጭ	-1587
▁የሁ	-1588
▁ያን	-1589
▁ፍላ	-1590
▁via	-1591
▁ሌላው	-1592
▁ሰልፍ	-1593
▁ቀላል	-1594
▁ደጋፊ	-1595
▁ድርጅ	-1596
▁ጥረት	-1597
▁ፖሊስ	-1598
▁መጨረሻ	-1599
▁ሙስሊም	-1600
▁ንግግር	-1601
▁አድርጎ	-1602
▁የሚያሳ	-1603
▁የሚገባ	-1604
▁የተሻለ	-1605
▁ያለበት	-1606
▁አህመዲን	-1607
▁አለባቸው	-1608
▁የሚያደር	-1609
▁የከተማዋ	-1610
ሁኑ	-1611
ሃብ	-1612
ለሽ	-1613
ላች	-1614
ልሽ	-1615
ርቅ	-1616
ንቅ	-1617
ኝም	-1618
አዊ	-1619
ክሩ	-1620
ወች	-1621
ያዊ	-1622
ጅም	-1623
ጣጥ	-1624
▁a	-1625
▁ዮ	-1626
▁ዴ	-1627
▁ጊ	-1628
ለች።	-1629
ሉንም	-1630
ላማዊ	-1631
ሙስሊ	-1632
ሮችን	-1633
ሰራር	-1634
ሳሰብ	-1635
ተዋል	-1636
ጀመር	-1637
ገኘው	-1638
ግኘት	-1639
▁ህል	-1640
▁ለኢ	-1641
▁መጨ	-1642
▁ብን	-1643
▁ተሰ	-1644
▁ከብ	-1645
▁ከታ	-1646
▁ወታ	-1647
▁የክ	-1648
▁ይለ	-1649
▁ጠብ	-1650
ስልጣን	-1651
▁ሃብት	-1652
▁መልስ	-1653
▁መቆራ	-1654
▁ምስኪ	-1655
▁ቋንቋ	-1656
▁አለኝ	-1657
▁አዋጅ	-1658
▁እርግ	-1659
▁የመጣ	-1660
▁የሚታ	-1661
▁የምር	-1662
▁ጉባኤ	-1663
▁ፕሮጀ	-1664
▁ፖሊሲ	-1665
▁መመሪያ	-1666
▁ተቋማት	-1667
▁ትውልድ	-1668
▁ክርስቶ	-1669
▁የባንክ	-1670
▁ጋዜጠኛ	-1671
▁ግንባር	-1672
▁ጠንካራ	-1673
ክርስቲያን	-1674
▁ምንድነው	-1675
▁አስተዳደር	-1676
ee	-1677
ላቀ	-1678
ልቁ	-1679
መች	-1680
ሜት	-1681
ራም	-1682
ብስ	-1683
ከን	-1684
ወደ	-1685
ደም	-1686
ዱት	-1687
ጋና	-1688
ፈታ	-1689
▁H	-1690
ለያዩ	-1691
ሸነፍ	-1692
ነትና	-1693
ኛል።	-1694
ጠብቃ	-1695
▁ሃጢ	-1696
▁ማእ	-1697
▁ስህ	-1698
▁ቀል	-1699
▁ቀይ	-1700
▁ቅር	-1701
▁ባን	-1702
▁ተሳ	-1703
▁ትላ	-1704
▁ንጹ	-1705
▁ወል	-1706
▁ጎበ	-1707
ፈልገው	-1708
▁ሃገር	-1709
▁መንገ	-1710
▁መከራ	-1711
▁መገር	-1712
▁ስጋት	-1713
▁ተደራ	-1714
▁አቀፍ	-1715
▁እለት	-1716
▁ወለጋ	-1717
▁ወጣት	-1718
▁የተቀ	-1719
▁የኑሮ	-1720
▁ጥበቃ	-1721
▁የሰላም	-1722
▁ድርጅት	-1723
▁ጉዳዮች	-1724
ራንስፖርት	-1725
▁እስካሁን	-1726
▁የነበረው	-1727
▁አይደለም።	-1728
le	-1729
ለጥ	-1730
ላጊ	-1731
ልጥ	-1732
ሎጂ	-1733
ምም	-1734
ረሳ	-1735
ራይ	-1736
ርዝ	-1737
ርግ	-1738
በሌ	-1739
ያት	-1740
ዬን	-1741
ገቱ	-1742
ጭት	-1743
▁F	-1744
▁L	-1745
▁ሻ	-1746
thi	-1747
ሆንም	-1748
ሉበት	-1749
ምንም	-1750
ተኞች	-1751
ድርግ	-1752
ጥጥር	-1753
▁ሰፊ	-1754
▁በባ	-1755
▁በዚ	-1756
▁በድ	-1757
▁ብታ	-1758
▁እመ	-1759
▁ከሃ	-1760
▁ከሌ	-1761
▁ከን	-1762
▁ወሎ	-1763
▁ጸረ	-1764
▁ፊት	-1765
▁ሆኗል	-1766
▁ለመቀ	-1767
▁ማየት	-1768
▁ቆንጆ	-1769
▁በሚል	-1770
▁ብድር	-1771
▁አልነ	-1772
▁የሆኑ	-1773
▁የተከ	-1774
▁የውሃ	-1775
▁የጦር	-1776
▁ድንቅ	-1777
▁ጀበል	-1778
▁ሁሉንም	-1779
▁መገርሳ	-1780
▁በአለም	-1781
▁በአዲስ	-1782
▁ተጽእኖ	-1783
▁ትኩረት	-1784
▁እድገት	-1785
▁ወደፊት	-1786
▁ይቅርታ	-1787
▁ድንጋይ	-1788
▁ዶክተር	-1789
▁ሁላችንም	-1790
▁መቆራረጥ	-1791
▁በማድረግ	-1792
▁የመድሃኒት	-1793
re	-1794
ሁፍ	-1795
ሊና	-1796
ሙያ	-1797
ሯል	-1798
ሰበ	-1799
ሳኔ	-1800
ቂቅ	-1801
ነጋ	-1802
ናፊ	-1803
ክሮ	-1804
ወሃ	-1805
ዝቡ	-1806
ዝን	-1807
ጣይ	-1808
ጨፈ	-1809
ፈት	-1810
ፋን	-1811
ሃል።	-1812
ህደት	-1813
ላለም	-1814
ማቸው	-1815
ስትና	-1816
ንግል	-1817
ያንስ	-1818
▁መሃ	-1819
▁ሜዳ	-1820
▁ቀረ	-1821
▁ንጉ	-1822
▁ከሰ	-1823
▁ክት	-1824
▁የዋ	-1825
▁የፌ	-1826
▁ይገ	-1827
▁ጥን	-1828
ተኝነት	-1829
▁ሆነው	-1830
▁ልደቱ	-1831
▁መልክ	-1832
▁ሲባል	-1833
▁ሴቶች	-1834
▁ስለሚ	-1835
▁በሃላ	-1836
▁አለች	-1837
▁ዘረኛ	-1838
▁ዛሬም	-1839
▁የሚቆ	-1840
▁የዛሬ	-1841
▁ያሉት	-1842
▁ያንተ	-1843
▁ያደረ	-1844
▁መስጠት	-1845
▁ሰይጣን	-1846
▁አማርኛ	-1847
▁እንዳል	-1848
▁ካልሆነ	-1849
▁ወጣቶች	-1850
▁የበለጠ	-1851
▁እንደሚያ	-1852
▁የብልጽግና	-1853
ad	-1854
ሊስ	-1855
ማረ	-1856
ሥራ	-1857
ሽት	-1858
ቁም	-1859
ባሉ	-1860
ቴን	-1861
ችላ	-1862
ነኛ	-1863
ካል	-1864
ካታ	-1865
ወጥ	-1866
ዊት	-1867
ውቃ	-1868
ዝና	-1869
ደድ	-1870
ደጋ	-1871
ዳዳ	-1872
ጠየ	-1873
ጡን	-1874
ጣጫ	-1875
ፍና	-1876
▁W	-1877
ህነት	-1878
ሪደር	-1879
ሯል።	-1880
ቅረብ	-1881
ባችሁ	-1882
ባችን	-1883
ንተር	-1884
ክልሉ	-1885
ፈጥሮ	-1886
ፍሪካ	-1887
▁th	-1888
▁ሃገ	-1889
▁ሆኖ	-1890
▁ለገ	-1891
▁መፍ	-1892
▁ሚና	-1893
▁ሰዉ	-1894
▁ሳያ	-1895
▁ተሸ	-1896
▁አራ	-1897
▁እብ	-1898
▁ከቀ	-1899
▁ወላ	-1900
▁ዝቅ	-1901
▁የጸ	-1902
▁ይስ	-1903
▁ይሻ	-1904
▁ጀም	-1905
ጠኝነት	-1906
▁መታወ	-1907
▁ቤቶች	-1908
▁ትግሬ	-1909
▁ነው፤	-1910
▁አምባ	-1911
▁አያስ	-1912
▁እግዚ	-1913
▁ካልተ	-1914
▁ወገን	-1915
▁ዘመቻ	-1916
▁ዘርፍ	-1917
▁ይመጣ	-1918
▁መጽሃፍ	-1919
▁ሚሊዮን	-1920
▁ምንድን	-1921
▁ተግባር	-1922
▁አስተዋ	-1923
▁እንደነ	-1924
▁የሚሉት	-1925
▁የአለም	-1926
▁ይመስለ	-1927
▁በተግባር	-1928
▁እንደማይ	-1929
▁እንዳንተ	-1930
▁እውነተኛ	-1931
▁ለሃገራችን	-1932
▁አስተያየት	-1933
ol	-1934
ሩም	-1935
ሰት	-1936
ሳቀ	-1937
ቃጠ	-1938
ቡት	-1939
ያል	-1940
ያዘ	-1941
ደበ	-1942
ፊያ	-1943
ፍን	-1944
▁h	-1945
▁w	-1946
▁ሎ	-1947
▁፥	-1948
ለኝም	-1949
ለውን	-1950
ራዊት	-1951
ውቅም	-1952
ደርስ	-1953
ግራም	-1954
▁መሠ	-1955
▁ምት	-1956
▁ሰራ	-1957
▁ባህ	-1958
▁ተዋ	-1959
▁እይ	-1960
▁የሸ	-1961
▁ይፈ	-1962
▁ጉዞ	-1963
▁ግፍ	-1964
▁ጠላ	-1965
ቶቻችን	-1966
ነታቸው	-1967
ኤርትራ	-1968
ከላከል	-1969
▁መሃል	-1970
▁መሆና	-1971
▁ትግል	-1972
▁አለን	-1973
▁አቋም	-1974
▁እሁድ	-1975
▁እርሱ	-1976
▁ውበት	-1977
▁የመስ	-1978
▁የወደ	-1979
▁የገና	-1980
▁ገጽታ	-1981
▁ጭማሪ	-1982
thiop	-1983
▁መስራት	-1984
▁ማህበር	-1985
▁ምስኪን	-1986
▁በሁሉም	-1987
▁በመሆኑ	-1988
▁ብርሃኑ	-1989
▁ትርጉም	-1990
▁እንዳት	-1991
▁ያደርጋ	-1992
▁ጎንደር	-1993
▁ሃገራችንን	-1994
▁ለማንኛውም	-1995
om	-1996
ሄዱ	-1997
ሉኝ	-1998
ማኝ	-1999
ምባ	-2000
ምታ	-2001
ረም	-2002
ረገ	-2003
ሪው	-2004
ሳቢ	-2005
ስር	-2006
ቃወ	-2007
ቆር	-2008
በታ	-2009
በነ	-2010
ባበ	-2011
ቺን	-2012
ችሉ	-2013
ነህ	-2014
ዛዝ	-2015
የሁ	-2016
ያዙ	-2017
ዳሴ	-2018
ድቅ	-2019
ጦታ	-2020
ፍራ	-2021
ፍር	-2022
▁g	-2023
▁y	-2024
▁ሬ	-2025
▁ቄ	-2026
▁ቶ	-2027
ህነግ	-2028
ስቴር	-2029
ናገሩ	-2030
ኛውን	-2031
ያችን	-2032
ጥፋት	-2033
ፈጸመ	-2034
ፌሰር	-2035
▁ሆና	-2036
▁መች	-2037
▁ምኞ	-2038
▁ሥር	-2039
▁ሰለ	-2040
▁ሰላ	-2041
▁ሽን	-2042
▁ቀር	-2043
▁በላ	-2044
▁ባት	-2045
▁ብቻ	-2046
▁ተል	-2047
▁ተው	-2048
▁እዳ	-2049
▁ከል	-2050
▁ውሸ	-2051
▁ውጪ	-2052
▁ያኔ	-2053
▁ዲያ	-2054
▁ፈል	-2055
▁ለወጣ	-2056
▁መርሃ	-2057
▁መርዝ	-2058
▁መናር	-2059
▁ስኬት	-2060
▁በርታ	-2061
▁በጋራ	-2062
▁ባለው	-2063
▁ተከታ	-2064
▁አስቸ	-2065
▁ከየት	-2066
▁ዘፈን	-2067
▁ዙሪያ	-2068
▁የቀረ	-2069
▁ገብቶ	-2070
▁ጠቃሚ	-2071
▁ጥላቻ	-2072
▁ሃይሎች	-2073
▁ህዝብን	-2074
▁ልዩነት	-2075
▁መጠበቅ	-2076
▁ቤተሰብ	-2077
▁አንዳን	-2078
▁አይመስ	-2079
▁እየሆነ	-2080
▁እየሰራ	-2081
▁ዝግጅት	-2082
▁ፍላጎት	-2083
▁ሙስሊሞች	-2084
▁ሚኒስትር	-2085
▁አስታወቀ	-2086
▁አቅርቦት	-2087
▁ክርስቶስ	-2088
▁ያስፈልጋል	-2089
ሞላ	-2090
ሪት	-2091
ራራ	-2092
ርዳ	-2093
ሰለ	-2094
ሳተ	-2095
ሳን	-2096
ሳካ	-2097
ሶች	-2098
ቂቃ	-2099
ቂት	-2100
ቋቋ	-2101
በሻ	-2102
ብዛ	-2103
ቾች	-2104
ናቀ	-2105
ኖረ	-2106
ኖራ	-2107
ኳይ	-2108
ዘር	-2109
ዛቤ	-2110
ዴፓ	-2111
ድያ	-2112
ጥም	-2113
ጮች	-2114
ፋሪ	-2115
ion	-2116
ቀጥል	-2117
ችሁት	-2118
ውሃት	-2119
ዘጋጀ	-2120
ይወት	-2121
▁ለዲ	-2122
▁መወ	-2123
▁መገ	-2124
▁ሚዛ	-2125
▁ሰማ	-2126
▁ሲሉ	-2127
▁ስነ	-2128
▁በገ	-2129
▁ቢሮ	-2130
▁አዎ	-2131
▁አጀ	-2132
▁ከዛ	-2133
▁የቴ	-2134
▁የዜ	-2135
▁የፓ	-2136
▁ጸጋ	-2137
ልልልል	-2138
ታችንን	-2139
ነስተኛ	-2140
ንግሥት	-2141
ይማኖት	-2142
▁መኖር	-2143
▁ስለመ	-2144
▁ስርአ	-2145
▁በኩል	-2146
▁በጦር	-2147
▁ተወካ	-2148
▁ተደር	-2149
▁ነዉ።	-2150
▁ነው።	-2151
▁እኔን	-2152
▁ውሳኔ	-2153
▁ዜጎች	-2154
▁የደረ	-2155
▁ጥራት	-2156
▁ጭምር	-2157
▁ጽዮን	-2158
▁ፍርድ	-2159
▁ህጻናት	-2160
▁ትክክለ	-2161
▁አሰራር	-2162
▁አይገባ	-2163
▁እንደው	-2164
▁እንድት	-2165
▁ውድነቱ	-2166
▁የሆነው	-2167
▁የነበሩ	-2168
▁የውሸት	-2169
▁ሃላፊነት	-2170
▁ነዋሪዎች	-2171
▁እንዲሆን	-2172
▁እንግዲህ	-2173
▁የሚባለው	-2174
▁ለሁላችንም	-2175
▁የኢትዮጵያን	-2176
▁ቤተክርስቲያን	-2177
ew	-2178
il	-2179
ሃዊ	-2180
መቻ	-2181
ማግ	-2182
ርጊ	-2183
ሰቦ	-2184
ሰጠ	-2185
ስና	-2186
ሽም	-2187
በሉ	-2188
ባረ	-2189
ነዉ	-2190
ኔን	-2191
ከባ	-2192
ክሲ	-2193
ወጡ	-2194
ዉን	-2195
ደሩ	-2196
ገስ	-2197
ጋሚ	-2198
▁d	-2199
▁ሩ	-2200
ሰጠው	-2201
ስልጣ	-2202
ስተር	-2203
ሻሻል	-2204
ታወቅ	-2205
እምሮ	-2206
ደረጉ	-2207
ፈጠረ	-2208
▁ለኔ	-2209
▁መሸ	-2210
▁መቅ	-2211
▁ምል	-2212
▁ሰም	-2213
▁ስሙ	-2214
▁ቁጭ	-2215
▁በሽ	-2216
▁ቡና	-2217
▁ነጥ	-2218
▁ኛው	-2219
▁አቡ	-2220
▁አፈ	-2221
▁ከሁ	-2222
▁ከድ	-2223
▁የሊ	-2224
▁የኮ	-2225
▁የጋ	-2226
▁ጥፋ	-2227
▁ጫና	-2228
▁ፍሬ	-2229
ቻችንን	-2230
▁ልደት	-2231
▁መጥፎ	-2232
▁ማሻሻ	-2233
▁ረቂቅ	-2234
▁ሰውዬ	-2235
▁ቆሻሻ	-2236
▁አሪፍ	-2237
▁አስመ	-2238
▁አንዴ	-2239
▁እራሱ	-2240
▁እሱን	-2241
▁ኩራት	-2242
▁ኮሚቴ	-2243
▁የሚጠ	-2244
▁የጤና	-2245
▁ይገር	-2246
▁ገበሬ	-2247
▁ጉዳት	-2248
▁ግንኙ	-2249
▁ፍጹም	-2250
▁ለህዝብ	-2251
▁መሪዎች	-2252
▁መሳሪያ	-2253
▁ቢያንስ	-2254
▁ከተሞች	-2255
▁የአብይ	-2256
▁የኢዜማ	-2257
▁ያላቸው	-2258
▁ለከተማዋ	-2259
▁ሚኒስቴር	-2260
▁የአካባቢ	-2261
▁ይመስላል	-2262
▁Ethiop	-2263
ለል	-2264
ሊት	-2265
ላር	-2266
ላቹ	-2267
ረሰ	-2268
ርባ	-2269
ሮፕ	-2270
ሴን	-2271
ስቃ	-2272
ቀኑ	-2273
ቃሉ	-2274
ቆጣ	-2275
በዛ	-2276
ቱሪ	-2277
ታች	-2278
ቷን	-2279
ኑር	-2280
ናይ	-2281
ንባ	-2282
ክቶ	-2283
ክኖ	-2284
ወለ	-2285
ይይ	-2286
ዲዮ	-2287
ጋዊ	-2288
ጓዴ	-2289
ጣው	-2290
ጦች	-2291
ጨት	-2292
ጻፍ	-2293
ፍቶ	-2294
▁J	-2295
▁ኬ	-2296
▁ጩ	-2297
ላላኪ	-2298
ራፊክ	-2299
ርጊስ	-2300
በረው	-2301
ናትን	-2302
ናቸው	-2303
ኞችን	-2304
ከበር	-2305
ፈለገ	-2306
ፈልጉ	-2307
▁ሃሳ	-2308
▁ለጥ	-2309
▁ሊቀ	-2310
▁ልጆ	-2311
▁መዋ	-2312
▁ሚን	-2313
▁ሞጣ	-2314
▁ቅን	-2315
▁በዛ	-2316
▁ባዶ	-2317
▁ተነ	-2318
▁ኤር	-2319
▁እዚ	-2320
▁እግ	-2321
▁ወረ	-2322
▁ወራ	-2323
▁ውሻ	-2324
▁ይሉ	-2325
▁ፈር	-2326
ረንጓዴ	-2327
ረጋገጥ	-2328
▁ለመግ	-2329
▁ማሰብ	-2330
▁ምላሽ	-2331
▁ስጦታ	-2332
▁በለው	-2333
▁በስተ	-2334
▁ባለመ	-2335
▁ባንክ	-2336
▁ነጋዴ	-2337
▁አሻራ	-2338
▁አቤት	-2339
▁አብዛ	-2340
▁እሳት	-2341
▁እያስ	-2342
▁ከዚያ	-2343
▁ክቡር	-2344
▁የዘር	-2345
▁ይሆና	-2346
▁ጓደኛ	-2347
▁ጨምሮ	-2348
▁ህልውና	-2349
▁ህዝባዊ	-2350
▁መሰለኝ	-2351
▁በግልጽ	-2352
▁ባለሙያ	-2353
▁ተቀባይ	-2354
▁አካላት	-2355
▁ኤርትራ	-2356
▁እንዳለ	-2357
▁ድንግል	-2358
▁ሃገራችን	-2359
▁አስፈላጊ	-2360
▁ኢትዮጲያ	-2361
▁አስተሳሰብ	-2362
▁የእግዚአብሄር	-2363
of	-2364
ሃው	-2365
ለስ	-2366
ልቻ	-2367
መኝ	-2368
ረጡ	-2369
ርሱ	-2370
ሰድ	-2371
ሱት	-2372
ስቡ	-2373
በሳ	-2374
በተ	-2375
በኛ	-2376
ታን	-2377
ችኋ	-2378
ች።	-2379
ንቨ	-2380
ካከ	-2381
ያይ	-2382
ጀም	-2383
ጀራ	-2384
ጣሚ	-2385
ፍረ	-2386
፣የ	-2387
▁G	-2388
▁ቲ	-2389
▁ኔ	-2390
ሏል።	-2391
ረንጅ	-2392
ርዝር	-2393
ችለው	-2394
ናል።	-2395
ዚህን	-2396
ደርጉ	-2397
ገባው	-2398
ጥነት	-2399
▁ሃብ	-2400
▁ሆን	-2401
▁ለዛ	-2402
▁በይ	-2403
▁በጉ	-2404
▁ተና	-2405
▁ቴሌ	-2406
▁አቃ	-2407
▁አዛ	-2408
▁አየ	-2409
▁ኢት	-2410
▁እሄ	-2411
▁ከት	-2412
▁ዘረ	-2413
▁የሴ	-2414
▁የፊ	-2415
▁ይታ	-2416
▁ደን	-2417
▁ፋኖ	-2418
መሰረተ	-2419
ረጋጋት	-2420
ርስቲያ	-2421
ሳቸውን	-2422
ክኖሎጂ	-2423
ወሃትን	-2424
▁ማነው	-2425
▁ማወቅ	-2426
▁ምእራ	-2427
▁ምድር	-2428
▁ስለተ	-2429
▁በሆነ	-2430
▁ባህል	-2431
▁ቦርድ	-2432
▁ትልቁ	-2433
▁ችግሩ	-2434
▁ነፍስ	-2435
▁ንግድ	-2436
▁አለቃ	-2437
▁አላህ	-2438
▁አመሰ	-2439
▁አታው	-2440
▁አየር	-2441
▁እንስ	-2442
▁እየቀ	-2443
▁እያን	-2444
▁ወዳጅ	-2445
▁የመን	-2446
▁የሚደ	-2447
▁ይስጥ	-2448
▁ህዝቦች	-2449
▁ምስጋና	-2450
▁ሳምንት	-2451
▁ስህተት	-2452
▁ተላላኪ	-2453
▁ነገሮች	-2454
▁አማራን	-2455
▁አማራጭ	-2456
▁አሰጣጥ	-2457
▁አቅጣጫ	-2458
▁አንዱን	-2459
▁አይነቱ	-2460
▁አጀንዳ	-2461
▁እረፍት	-2462
▁ወንጀለ	-2463
▁የሚሰማ	-2464
▁የንግድ	-2465
▁የወያኔ	-2466
▁የጸጥታ	-2467
▁ይበልጥ	-2468
▁ፍትሃዊ	-2469
▁ፕሮጀክ	-2470
▁አደረሰን	-2471
▁ኢህአዴግ	-2472
▁የሚለውን	-2473
▁የሚገርም	-2474
▁ፕሮግራም	-2475
as	-2476
ay	-2477
ed	-2478
ለየ	-2479
ሊክ	-2480
ልጣ	-2481
ሎቹ	-2482
ሞጣ	-2483
ሠራ	-2484
ረጠ	-2485
ራቅ	-2486
ሬን	-2487
ሮን	-2488
ሰቃ	-2489
ሰጡ	-2490
ስክ	-2491
ቁን	-2492
ብሮ	-2493
ንሳ	-2494
ዉም	-2495
ያቂ	-2496
ድሬ	-2497
ጠላ	-2498
ጠጥ	-2499
ፋል	-2500
ፕሎ	-2501
▁ሼ	-2502
▁ቪ	-2503
▁ጻ	-2504
ሌክት	-2505
ልምና	-2506
ልን።	-2507
ምራት	-2508
ረዳት	-2509
ሳችን	-2510
ስቃሴ	-2511
ቃጠል	-2512
ከታተ	-2513
ወጣው	-2514
ውቀት	-2515
ውንም	-2516
ዘጋጅ	-2517
ዱስት	-2518
▁Ha	-2519
▁an	-2520
▁ሆድ	-2521
▁መረ	-2522
▁ምህ	-2523
▁ምቹ	-2524
▁ሳን	-2525
▁በሁ	-2526
▁በቅ	-2527
▁በፈ	-2528
▁ቤቱ	-2529
▁ተይ	-2530
▁ትብ	-2531
▁ኑሮ	-2532
▁ከኦ	-2533
▁ከው	-2534
▁ዘላ	-2535
▁ይቻ	-2536
▁ይጨ	-2537
▁ጉራ	-2538
▁ጥበ	-2539
ላችሁም	-2540
ቤታችን	-2541
ዮርጊስ	-2542
▁ህጋዊ	-2543
▁ለመስ	-2544
▁ምድረ	-2545
▁ምግብ	-2546
▁ስድብ	-2547
▁ቀርቶ	-2548
▁ቀጥታ	-2549
▁በማስ	-2550
▁በትክ	-2551
▁ቢኖር	-2552
▁ተሳት	-2553
▁ተግባ	-2554
▁አድራ	-2555
▁አግኝ	-2556
▁አፋር	-2557
▁ክፍያ	-2558
▁የሚቀ	-2559
▁ያክል	-2560
▁ይሰማ	-2561
▁ይፈጥ	-2562
▁ዶላር	-2563
▁ጅምር	-2564
▁ግብጽ	-2565
▁ጎበዝ	-2566
▁ጠዋት	-2567
▁ጥቁር	-2568
▁ፌደራ	-2569
▁መንግስ	-2570
▁ቅድሚያ	-2571
▁በቅርቡ	-2572
▁ባለበት	-2573
▁ነጻነት	-2574
▁አካውን	-2575
▁እባክህ	-2576
▁እውቀት	-2577
▁ወቅታዊ	-2578
▁የለም።	-2579
▁የሚሰራ	-2580
▁የምርጫ	-2581
▁የአንድ	-2582
▁ይባላል	-2583
▁ድርድር	-2584
▁ለመናገር	-2585
▁አይችልም	-2586
▁እንቅፋት	-2587
▁ዲሞክራሲ	-2588
▁ድርጅቶች	-2589
▁ግንኙነት	-2590
▁ፓርቲዎች	-2591
▁እንቅስቃሴ	-2592
▁ይመስለኛል	-2593
ሃነ	-2594
ላህ	-2595
ማሩ	-2596
ማሲ	-2597
ሞን	-2598
ረደ	-2599
ረፈ	-2600
ሬዝ	-2601
ሽው	-2602
ቀስ	-2603
ቃድ	-2604
ቢት	-2605
ትል	-2606
እኮ	-2607
ከቱ	-2608
ኩን	-2609
ኩኝ	-2610
ኮች	-2611
ኸው	-2612
ዘው	-2613
የም	-2614
ዩት	-2615
ይም	-2616
ይን	-2617
ዳና	-2618
ገዝ	-2619
ጋል	-2620
ጋሪ	-2621
ግም	-2622
ጠኝ	-2623
ጤት	-2624
ፈሩ	-2625
ፈተ	-2626
▁n	-2627
▁ጤ	-2628
ላይታ	-2629
ል፡፡	-2630
ማግሌ	-2631
ሰቢያ	-2632
ቀርብ	-2633
ቃቸው	-2634
በራዊ	-2635
ብራት	-2636
ብነት	-2637
ክራሪ	-2638
ዩኒቨ	-2639
ድረስ	-2640
ገደሉ	-2641
ጎችን	-2642
ጠኞች	-2643
ጣቸው	-2644
ፈልገ	-2645
▁ልማ	-2646
▁መላ	-2647
▁መክ	-2648
▁ማው	-2649
▁ሳት	-2650
▁ሺህ	-2651
▁በሉ	-2652
▁በበ	-2653
▁በዝ	-2654
▁ብሄ	-2655
▁ብቸ	-2656
▁አሽ	-2657
▁አቦ	-2658
▁አወ	-2659
▁አገ	-2660
▁እል	-2661
▁ካስ	-2662
▁ኳስ	-2663
▁ወግ	-2664
▁ዜጋ	-2665
▁የሽ	-2666
▁የካ	-2667
▁የፕ	-2668
▁ይል	-2669
▁ደር	-2670
▁ገባ	-2671
▁ጥሪ	-2672
ናገረው	-2673
ንቀሳቀ	-2674
ገንዘብ	-2675
ፕሎማሲ	-2676
▁you	-2677
▁ሃሃሃ	-2678
▁ለማሳ	-2679
▁መምህ	-2680
▁ሥቃይ	-2681
▁ስሜት	-2682
▁ብዛት	-2683
▁ተጠና	-2684
▁አይነ	-2685
▁አፈር	-2686
▁እግር	-2687
▁የሚወ	-2688
▁የማያ	-2689
▁ደደብ	-2690
▁ጃዋር	-2691
▁ግድብ	-2692
▁ጥናት	-2693
▁ጽሁፍ	-2694
▁ፖርቲ	-2695
▁ለህዝቡ	-2696
▁ለንግድ	-2697
▁መናገር	-2698
▁መጨመር	-2699
▁ማግኘት	-2700
▁ምክክሩ	-2701
▁ሪፖርት	-2702
▁ሰራዊት	-2703
▁በህዝብ	-2704
▁በማለት	-2705
▁በርካታ	-2706
▁በፍጹም	-2707
▁ትህነግ	-2708
▁ኢየሱስ	-2709
▁እርስዎ	-2710
▁ኦሮሚያ	-2711
▁ወንጀል	-2712
▁ዘንድሮ	-2713
▁ዝርዝር	-2714
▁የመኪና	-2715
▁የሚሆን	-2716
▁የሚመስ	-2717
▁የሚገኙ	-2718
▁ግለሰብ	-2719
▁ሃይማኖት	-2720
▁ለማድረግ	-2721
▁በመጨረሻ	-2722
▁በስተቀር	-2723
▁በኦሮሚያ	-2724
▁ተወካዮች	-2725
▁አላውቅም	-2726
▁አመሰግና	-2727
▁አይሆንም	-2728
▁እንደምት	-2729
▁ይችላል።	-2730
▁ደጋፊዎች	-2731
▁ፕሮፌሰር	-2732
▁በመንግስት	-2733
▁ተቀባይነት	-2734
▁የአረንጓዴ	-2735
▁Ethiopia	-2736
el	-2737
ለዉ	-2738
ላቁ	-2739
ረባ	-2740
ረቱ	-2741
ሬድ	-2742
ስማ	-2743
ቀደ	-2744
በደ	-2745
ታቹ	-2746
ቶቹ	-2747
ቹህ	-2748
ናም	-2749
ንጹ	-2750
ከም	-2751
ኩም	-2752
ኮል	-2753
ኳን	-2754
ዋሳ	-2755
ውሞ	-2756
ደስ	-2757
ዳማ	-2758
ዳም	-2759
ጊድ	-2760
ጌታ	-2761
ጠረ	-2762
ፍል	-2763
ፎች	-2764
▁ሮ	-2765
▁፩	-2766
ሆንክ	-2767
ልማት	-2768
ሪካዊ	-2769
ሳሳይ	-2770
ባባይ	-2771
ብረተ	-2772
ነውን	-2773
ካሄደ	-2774
ዛሬው	-2775
ጠይቅ	-2776
▁ለራ	-2777
▁ለሰ	-2778
▁ለበ	-2779
▁ለደ	-2780
▁ልን	-2781
▁መቸ	-2782
▁መዘ	-2783
▁ማታ	-2784
▁ማይ	-2785
▁ርእ	-2786
▁ሰን	-2787
▁ሸዋ	-2788
▁በጀ	-2789
▁ቢሊ	-2790
▁ቲቪ	-2791
▁ታስ	-2792
▁ትዝ	-2793
▁ነብ	-2794
▁አሃ	-2795
▁እቃ	-2796
▁እጃ	-2797
▁ኦቦ	-2798
▁ከፈ	-2799
▁ካሳ	-2800
▁ወስ	-2801
▁የሲ	-2802
▁ያነ	-2803
▁ያወ	-2804
▁ይጠ	-2805
▁ይፋ	-2806
▁ደመ	-2807
▁ደሴ	-2808
▁ደብ	-2809
▁ዳን	-2810
▁ድሃ	-2811
በረታታ	-2812
ቸዋል።	-2813
ናልባት	-2814
ጠቃላይ	-2815
▁ህዳር	-2816
▁ለቤተ	-2817
▁ምሽት	-2818
▁ስለም	-2819
▁ስትል	-2820
▁ቀድሞ	-2821
▁በህግ	-2822
▁በሚያ	-2823
▁በማን	-2824
▁በየት	-2825
▁ተወል	-2826
▁ታዲያ	-2827
▁ነጥብ	-2828
▁ንብረ	-2829
▁አልባ	-2830
▁አቅም	-2831
▁አይን	-2832
▁አደራ	-2833
▁እነሆ	-2834
▁እንጅ	-2835
▁እኛም	-2836
▁እዛው	-2837
▁እየታ	-2838
▁ከማን	-2839
▁ካንተ	-2840
▁ወራሪ	-2841
▁ወዳጄ	-2842
▁የሚሉ	-2843
▁የማት	-2844
▁የማን	-2845
▁የሰራ	-2846
▁የቤተ	-2847
▁የተሳ	-2848
▁የዚህ	-2849
▁ያለን	-2850
▁ያስተ	-2851
▁ደቂቃ	-2852
▁ደብረ	-2853
▁ጁንታ	-2854
▁ገዳይ	-2855
▁ጭንቅ	-2856
ሌክትሪክ	-2857
▁ለሌሎች	-2858
▁መድረክ	-2859
▁ሚኒስት	-2860
▁ሰላማዊ	-2861
▁ሰላምን	-2862
▁ቁጥጥር	-2863
▁ባለፈው	-2864
▁ተሳትፎ	-2865
▁አሸናፊ	-2866
▁እንደዛ	-2867
▁ኮሪደር	-2868
▁ዘመናዊ	-2869
▁የልማት	-2870
▁የሚመጣ	-2871
▁የሚችል	-2872
▁የቀድሞ	-2873
▁የአገር	-2874
▁የግብር	-2875
▁ያድርግ	-2876
▁ይሄንን	-2877
▁ይመስል	-2878
▁ጭማሪው	-2879
▁መታወቂያ	-2880
▁መድሃኒት	-2881
▁ትክክለኛ	-2882
▁አመራሮች	-2883
▁ጊዮርጊስ	-2884
▁ለዲሞክራሲ	-2885
▁የሚደረገው	-2886
▁ፕሮጀክቶች	-2887
ce	-2888
ow	-2889
መቱ	-2890
መኔ	-2891
ርም	-2892
ሰስ	-2893
ቤን	-2894
ነን	-2895
ንፈ	-2896
እት	-2897
ኦል	-2898
ካት	-2899
ካን	-2900
ኮን	-2901
ወት	-2902
ዋሃ	-2903
ዋሪ	-2904
ዋቂ	-2905
ዋይ	-2906
ዛኝ	-2907
ዞች	-2908
የህ	-2909
ያየ	-2910
ዲራ	-2911
ዳሜ	-2912
ዴት	-2913
ድሮ	-2914
ጁን	-2915
ገላ	-2916
ጋር	-2917
ፊቱ	-2918
▁l	-2919
▁ቸ	-2920
ሃለሁ	-2921
ለምን	-2922
ለው።	-2923
ልበት	-2924
ምራል	-2925
ርሃት	-2926
ስበው	-2927
ስታዝ	-2928
ቁረጥ	-2929
በታል	-2930
ቦታው	-2931
ቦችን	-2932
ተናል	-2933
ነራል	-2934
ንቃቄ	-2935
አለም	-2936
አላዊ	-2937
ከብር	-2938
ካሄድ	-2939
ክምና	-2940
ዊተር	-2941
ያለሁ	-2942
ያውቅ	-2943
ደርገ	-2944
ገናኝ	-2945
ግስት	-2946
ጠቀም	-2947
ጻነት	-2948
▁Th	-2949
▁ለቅ	-2950
▁ለታ	-2951
▁ለኦ	-2952
▁መድ	-2953
▁ሙድ	-2954
▁ሚያ	-2955
▁ቢል	-2956
▁ነጭ	-2957
▁አዲ	-2958
▁አፋ	-2959
▁እሚ	-2960
▁እገ	-2961
▁ከክ	-2962
▁ክር	-2963
▁ክብ	-2964
▁የጉ	-2965
▁ያሰ	-2966
▁ይወ	-2967
▁ደነ	-2968
▁ድብ	-2969
▁ጆሮ	-2970
▁ጠፋ	-2971
▁ጥቃ	-2972
▁ፈጣ	-2973
▁ፈጥ	-2974
ለመደው	-2975
ብራሪያ	-2976
ኖቻችን	-2977
ዋሪዎች	-2978
ያብሄር	-2979
▁ህጻን	-2980
▁ምሳሌ	-2981
▁ሠላም	-2982
▁ረጅም	-2983
▁ሰማይ	-2984
▁ሰበር	-2985
▁ሶስት	-2986
▁ቀበሌ	-2987
▁ቆይታ	-2988
▁በመን	-2989
▁በቀለ	-2990
▁ብርቱ	-2991
▁አለቀ	-2992
▁አራት	-2993
▁አባል	-2994
▁አውሬ	-2995
▁አይወ	-2996
▁እባካ	-2997
▁እንባ	-2998
▁እያሳ	-2999
▁ወጥቶ	-3000
▁የሚመ	-3001
▁የሚተ	-3002
▁የአባ	-3003
▁የጊዜ	-3004
▁ይገኛ	-3005
▁ድርሻ	-3006
▁ገለል	-3007
▁ጣቢያ	-3008
▁ጥፋት	-3009
▁ህውሃት	-3010
▁ለሁሉም	-3011
▁ለነገሩ	-3012
▁ለአንድ	-3013
▁መሃመድ	-3014
▁ማበረታ	-3015
▁በሃገር	-3016
▁በየቀኑ	-3017
▁ብላችሁ	-3018
▁ተልእኮ	-3019
▁ተጨማሪ	-3020
▁ትእዛዝ	-3021
▁አመራር	-3022
▁አስተማ	-3023
▁አደርጋ	-3024
▁አጋጣሚ	-3025
▁እንጀራ	-3026
▁ከአንተ	-3027
▁የላቸው	-3028
▁የተወሰ	-3029
▁ይመጣል	-3030
▁ይገኛል	-3031
▁ይፈጥራ	-3032
▁ግንዛቤ	-3033
▁ለወጣቶች	-3034
▁መንገዶች	-3035
▁ማብራሪያ	-3036
▁ማንኛውም	-3037
▁ምናልባት	-3038
▁በትክክል	-3039
▁በእውነት	-3040
▁አገልግሎ	-3041
▁እያንዳን	-3042
▁የለውም።	-3043
▁የመብራት	-3044
▁የተባለው	-3045
▁ብልጽግናን	-3046
▁አለባቸው።	-3047
________	-3048
▁የመጀመሪያው	-3049
LF	-3050
un	-3051
ve	-3052
ሄደ	-3053
ሊን	-3054
ሊያ	-3055
ላጅ	-3056
ሗላ	-3057
ሙር	-3058
ምቦ	-3059
ሰል	-3060
ሸነ	-3061
ሸጥ	-3062
ቆማ	-3063
በን	-3064
ነካ	-3065
ናብ	-3066
ና።	-3067
ንፋ	-3068
ከሩ	-3069
ካሂ	-3070
ዥን	-3071
ዳታ	-3072
ጋች	-3073
ግቶ	-3074
ጭር	-3075
ጽኦ	-3076
ፋይ	-3077
ፍታ	-3078
ፖሊ	-3079
ፖር	-3080
▁R	-3081
▁ሣ	-3082
▁ዎ	-3083
▁ፒ	-3084
PLF	-3085
ሆነው	-3086
ለማዊ	-3087
ለያየ	-3088
መለከ	-3089
መንት	-3090
ሥራት	-3091
ስራቅ	-3092
ስቶች	-3093
ሻገር	-3094
ቃል።	-3095
ቻለሁ	-3096
ችውን	-3097
ዊያን	-3098
ውቀው	-3099
ዎቹን	-3100
ደራል	-3101
ገራዊ	-3102
ፈርስ	-3103
ፈጠር	-3104
▁is	-3105
▁ለስ	-3106
▁ለቀ	-3107
▁ለግ	-3108
▁ለፍ	-3109
▁መሞ	-3110
▁መቶ	-3111
▁መኖ	-3112
▁መዳ	-3113
▁ማክ	-3114
▁ምኒ	-3115
▁ረዳ	-3116
▁ሰል	-3117
▁ስጋ	-3118
▁በሳ	-3119
▁በዋ	-3120
▁በፓ	-3121
▁ብል	-3122
▁ተዘ	-3123
▁ታይ	-3124
▁አተ	-3125
▁እሷ	-3126
▁እደ	-3127
▁ከራ	-3128
▁ከደ	-3129
▁የላ	-3130
▁የከ	-3131
▁የጽ	-3132
▁ያቀ	-3133
▁ይመ	-3134
▁ይና	-3135
▁ጀግ	-3136
▁ገር	-3137
▁ግዴ	-3138
▁ጥላ	-3139
ሮፕላን	-3140
ቻቸውን	-3141
ነታችን	-3142
ደራደር	-3143
ዱስትሪ	-3144
ገሪቱን	-3145
ፈልግም	-3146
▁ሂደት	-3147
▁ሃጢአ	-3148
▁ህሊና	-3149
▁ሆነህ	-3150
▁ሊሰጥ	-3151
▁መማር	-3152
▁መቀሌ	-3153
▁መኪና	-3154
▁መጀመ	-3155
▁መግባ	-3156
▁ምንጭ	-3157
▁ስልክ	-3158
▁ቀልድ	-3159
▁ተራራ	-3160
▁ተገቢ	-3161
▁ታክስ	-3162
▁አሉ።	-3163
▁አንደ	-3164
▁እስር	-3165
▁እንኳ	-3166
▁እኛን	-3167
▁እወዳ	-3168
▁ከሚያ	-3169
▁ካድሬ	-3170
▁ክፍለ	-3171
▁ወዲህ	-3172
▁የሚፈ	-3173
▁የቤት	-3174
▁የቱሪ	-3175
▁ያለህ	-3176
▁ያመጣ	-3177
▁ይላሉ	-3178
▁ይመል	-3179
▁ይከብ	-3180
▁ይዘው	-3181
▁ይጠብ	-3182
▁ደርሶ	-3183
▁ድርጊ	-3184
▁ጥበብ	-3185
ኢትዮጲያ	-3186
▁ሃገራት	-3187
▁ሃገራዊ	-3188
▁ሃገርን	-3189
▁ለአማራ	-3190
▁መጥፋት	-3191
▁ሰብአዊ	-3192
▁ሽማግሌ	-3193
▁በመሆን	-3194
▁በውሸት	-3195
▁ብርሃን	-3196
▁ተጠቃሚ	-3197
▁ተጠያቂ	-3198
▁ነፍጠኛ	-3199
▁አለብን	-3200
▁አላቸው	-3201
▁አልሰማ	-3202
▁አብረን	-3203
▁አንድም	-3204
▁አዳራሽ	-3205
▁አድርገ	-3206
▁እራሱን	-3207
▁ክብረት	-3208
▁ወያኔን	-3209
▁የሙስሊ	-3210
▁የበላይ	-3211
▁የተማረ	-3212
▁የተባለ	-3213
▁የአየር	-3214
▁የፍትህ	-3215
▁ይሻላል	-3216
▁ይደረግ	-3217
▁ግለሰቡ	-3218
▁በተጨማሪ	-3219
▁አስቸኳይ	-3220
▁አሸባሪው	-3221
▁እርግጠኛ	-3222
▁እንፈልጋ	-3223
▁የትራፊክ	-3224
▁የወጣቶች	-3225
▁ፖለቲከኛ	-3226
▁የሃይማኖት	-3227
▁የመከላከያ	-3228
▁የሚያደርግ	-3229
▁ይፈጥራል።	-3230
▁ፖለቲከኞች	-3231
IM	-3232
ct	-3233
id	-3234
ig	-3235
ik	-3236
ህ።	-3237
ሆይ	-3238
ለቱ	-3239
ለታ	-3240
ሉ፣	-3241
ላሴ	-3242
ልስ	-3243
ሎስ	-3244
መሩ	-3245
ሞተ	-3246
ረቅ	-3247
ረዱ	-3248
ሬው	-3249
ሮፓ	-3250
ሰኝ	-3251
ሳራ	-3252
ስቀ	-3253
ስቶ	-3254
ቀኝ	-3255
ቃን	-3256
ቆና	-3257
ቆን	-3258
ቋል	-3259
ባባ	-3260
ተራ	-3261
ነር	-3262
ነኝ	-3263
ኑት	-3264
ኒያ	-3265
ናወ	-3266
ንቺ	-3267
ንጉ	-3268
ንጻ	-3269
እና	-3270
ኩስ	-3271
ዘረ	-3272
ዩም	-3273
ዮሽ	-3274
ደኞ	-3275
ዳሚ	-3276
ዳዋ	-3277
ዳጊ	-3278
ድና	-3279
ገዙ	-3280
ገዳ	-3281
ጊያ	-3282
ጋን	-3283
ጌል	-3284
ጠሎ	-3285
ጥቅ	-3286
ጨነ	-3287
ጽና	-3288
ፌኮ	-3289
▁ጡ	-3290
ላለች	-3291
ሞኑን	-3292
ረዋል	-3293
ረጋገ	-3294
ርቶዶ	-3295
ርነት	-3296
ሮምያ	-3297
ሰናል	-3298
ሶስት	-3299
ሸባሪ	-3300
ቂዎች	-3301
በት።	-3302
ባበል	-3303
ክሳይ	-3304
ዋለን	-3305
ዝናል	-3306
ጣችሁ	-3307
ፍረት	-3308
▁me	-3309
▁of	-3310
▁ልቦ	-3311
▁መኮ	-3312
▁መፈ	-3313
▁ሠው	-3314
▁ቁር	-3315
▁በሠ	-3316
▁በሬ	-3317
▁በጭ	-3318
▁ቶሎ	-3319
▁እማ	-3320
▁እወ	-3321
▁እዛ	-3322
▁እዝ	-3323
▁ከሱ	-3324
▁ከስ	-3325
▁ኮን	-3326
▁ወድ	-3327
▁ውነ	-3328
▁የጀ	-3329
▁ይህ	-3330
▁ይቆ	-3331
▁ይኼ	-3332
▁ገል	-3333
▁ጎን	-3334
ላቸውን	-3335
መስገን	-3336
ሪያችን	-3337
ሰብሰብ	-3338
ክንያት	-3339
ደጋጋሚ	-3340
ገንባት	-3341
▁New	-3342
▁ሁሉን	-3343
▁ሃገሬ	-3344
▁ሊያስ	-3345
▁መስፋ	-3346
▁መቸም	-3347
▁ሚስት	-3348
▁ማድረ	-3349
▁ሲመጣ	-3350
▁ሲኖር	-3351
▁ሲገባ	-3352
▁በሌላ	-3353
▁በመስ	-3354
▁በሞጣ	-3355
▁በራስ	-3356
▁በሽታ	-3357
▁በቀል	-3358
▁በቀን	-3359
▁በወቅ	-3360
▁በዘር	-3361
▁ባልተ	-3362
▁ታውቃ	-3363
▁ነገሩ	-3364
▁አለ።	-3365
▁አልበ	-3366
▁አልፎ	-3367
▁አሳል	-3368
▁አቡነ	-3369
▁አንቀ	-3370
▁አውጪ	-3371
▁አይቀ	-3372
▁አይዞ	-3373
▁ኤርት	-3374
▁እርስ	-3375
▁እቅድ	-3376
▁ከላይ	-3377
▁ከመስ	-3378
▁ከንቱ	-3379
▁ወለድ	-3380
▁የሚከ	-3381
▁የተመ	-3382
▁የተረ	-3383
▁የነበ	-3384
▁የእኔ	-3385
▁የጋራ	-3386
▁የግል	-3387
▁ያሬድ	-3388
▁ይሄው	-3389
▁ይታወ	-3390
▁ይኖር	-3391
▁ይጠቅ	-3392
▁ጀዋር	-3393
▁ገበያ	-3394
▁ግድያ	-3395
▁ጠንቅ	-3396
▁ፕሬዝ	-3397
ስልጣናት	-3398
ገልግሎት	-3399
ገራችንን	-3400
▁TPLF	-3401
▁መስሎኝ	-3402
▁መቀጠል	-3403
▁መንፈስ	-3404
▁መደመር	-3405
▁መገለጫ	-3406
▁በምርጫ	-3407
▁በቀጣይ	-3408
▁በአሁኑ	-3409
▁ባንዲራ	-3410
▁ታሪካዊ	-3411
▁ትብብር	-3412
▁ንጹሃን	-3413
▁አማካሪ	-3414
▁አባላት	-3415
▁አእምሮ	-3416
▁አክራሪ	-3417
▁አክሱም	-3418
▁ኢንተር	-3419
▁እንደሌ	-3420
▁እንደማ	-3421
▁እንደም	-3422
▁እያየን	-3423
▁ከምርጫ	-3424
▁ወገኖች	-3425
▁ዋስትና	-3426
▁የሚሰሩ	-3427
▁የራሱን	-3428
▁የናንተ	-3429
▁የውጤት	-3430
▁ያሉትን	-3431
▁ይችላሉ	-3432
▁ህወሃትን	-3433
▁ለመቀነስ	-3434
▁ለምንድን	-3435
▁ሚንስትር	-3436
▁ነገሮችን	-3437
▁አልነበረ	-3438
▁አይቀርም	-3439
▁አድርገው	-3440
▁የሆነውን	-3441
▁የሚደነቅ	-3442
▁የብሄራዊ	-3443
▁የአማራን	-3444
▁ይሆናል።	-3445
▁አስተዋጽኦ	-3446
▁አስታወቀ።	-3447
▁አካባቢዎች	-3448
▁እንዳይሆን	-3449
BC	-3450
ለፍ	-3451
ሌት	-3452
ምብ	-3453
ምድ	-3454
ረኝ	-3455
ረጉ	-3456
ራማ	-3457
ርን	-3458
ሰደ	-3459
ሴት	-3460
ቆመ	-3461
ቆች	-3462
በዴ	-3463
ቤቴ	-3464
ተሽ	-3465
ታና	-3466
ቻለ	-3467
ችት	-3468
ቿን	-3469
ነሰ	-3470
ናን	-3471
ኔት	-3472
ኞቹ	-3473
እን	-3474
ኪያ	-3475
ክታ	-3476
ክን	-3477
ዚቃ	-3478
ደሰ	-3479
ደነ	-3480
ድስ	-3481
ጃም	-3482
ገበ	-3483
ግሩ	-3484
ግጥ	-3485
ጠጣ	-3486
ጥፍ	-3487
ጭሆ	-3488
▁ሦ	-3489
▁ኑ	-3490
人人	-3491
ter	-3492
ust	-3493
መንግ	-3494
ምነው	-3495
ረታዊ	-3496
ሬሽን	-3497
ርላማ	-3498
ስቡክ	-3499
ስትራ	-3500
ቀዋል	-3501
በትም	-3502
ነተኛ	-3503
ክረው	-3504
ወገድ	-3505
ዋለሁ	-3506
ዜጎች	-3507
ያለን	-3508
ያችሁ	-3509
ደራስ	-3510
ደራጀ	-3511
ደገፍ	-3512
ዳቸው	-3513
ጀመረ	-3514
ገነባ	-3515
ገናኛ	-3516
ገደለ	-3517
ገደል	-3518
ጊዜው	-3519
ግነት	-3520
ግግር	-3521
ፈጸም	-3522
▁ሁል	-3523
▁ሊግ	-3524
▁መጅ	-3525
▁መጋ	-3526
▁ሬሳ	-3527
▁ሸኔ	-3528
▁ቀው	-3529
▁ቅቤ	-3530
▁ባላ	-3531
▁ተበ	-3532
▁ተጨ	-3533
▁ታማ	-3534
▁አከ	-3535
▁አጣ	-3536
▁ኣብ	-3537
▁እዉ	-3538
▁ከኔ	-3539
▁ከኛ	-3540
▁ከኢ	-3541
▁ከፋ	-3542
▁ክለ	-3543
▁ዘው	-3544
▁ዞር	-3545
▁የሠ	-3546
▁የኣ	-3547
▁የጨ	-3548
▁ያፈ	-3549
▁ይሞ	-3550
▁ይቺ	-3551
▁ይው	-3552
▁ዱቄ	-3553
▁ዳቦ	-3554
▁ድሬ	-3555
▁ዶር	-3556
▁ግማ	-3557
▁ግም	-3558
▁ጣል	-3559
▁ጩኸ	-3560
haha	-3561
ራውያን	-3562
ታችሁን	-3563
ገኙበት	-3564
ፈጠረው	-3565
▁ሆነን	-3566
▁መልሶ	-3567
▁መስጂ	-3568
▁መጠን	-3569
▁መጠየ	-3570
▁ሰፈር	-3571
▁ሲያስ	-3572
▁ሳስብ	-3573
▁ሸገር	-3574
▁ሽፋን	-3575
▁ቃጠሎ	-3576
▁ቅዳሜ	-3577
▁በመነ	-3578
▁በመግ	-3579
▁በራሱ	-3580
▁በአስ	-3581
▁ብለሽ	-3582
▁ብሏል	-3583
▁ተከት	-3584
▁ተጠቅ	-3585
▁ታከለ	-3586
▁ናት።	-3587
▁ናቸው	-3588
▁አምላ	-3589
▁አምና	-3590
▁አንብ	-3591
▁አይመ	-3592
▁አይቼ	-3593
▁ኢራን	-3594
▁ከባለ	-3595
▁ከፈለ	-3596
▁ዉስጥ	-3597
▁ዋናው	-3598
▁ውይይ	-3599
▁ውጤቱ	-3600
▁የህዝ	-3601
▁የህግ	-3602
▁የማህ	-3603
▁የሞጣ	-3604
▁የሰጠ	-3605
▁የተቃ	-3606
▁የእኛ	-3607
▁የድር	-3608
▁የድሮ	-3609
▁ያለዉ	-3610
▁ይማር	-3611
▁ይሰራ	-3612
▁ይደረ	-3613
▁ይጠፋ	-3614
▁ደነዝ	-3615
▁ጥቂት	-3616
▁ጥንካ	-3617
▁ጸሃይ	-3618
ስተዳደር	-3619
ንቨርስቲ	-3620
▁ሃይማኖ	-3621
▁ህብረት	-3622
▁ለመያዝ	-3623
▁ለምሳሌ	-3624
▁ለዜጎች	-3625
▁መስማት	-3626
▁መሻሻል	-3627
▁መቀበል	-3628
▁መቁረጥ	-3629
▁መንደር	-3630
▁መዝሙር	-3631
▁ማስታወ	-3632
▁ማንነት	-3633
▁ማውራት	-3634
▁ማጥፋት	-3635
▁ምርጫው	-3636
▁ሰላምና	-3637
▁ቅድስት	-3638
▁ባይሆን	-3639
▁ተደራሽ	-3640
▁ታምራት	-3641
▁ትላለህ	-3642
▁ትዊተር	-3643
▁አመታዊ	-3644
▁አደለም	-3645
▁ኡስታዝ	-3646
▁እስከመ	-3647
▁እነሱን	-3648
▁እንደዚ	-3649
▁እንግል	-3650
▁ወታደር	-3651
▁ወንበር	-3652
▁ውህደት	-3653
▁ውጤታማ	-3654
▁የመጠጥ	-3655
▁የፓርቲ	-3656
▁ያደረገ	-3657
▁ይናገራ	-3658
▁ይጠብቅ	-3659
▁ይፈልጋ	-3660
▁ዳንኤል	-3661
▁ድህነት	-3662
▁ጀነራል	-3663
ዩኒቨርሲቲ	-3664
▁ህጻናትን	-3665
▁ለዘላለም	-3666
▁ሚኒስትሩ	-3667
▁ስምምነት	-3668
▁በትግራይ	-3669
▁በከተማዋ	-3670
▁በፖለቲካ	-3671
▁አካውንት	-3672
▁አደባባይ	-3673
▁እንጠብቃ	-3674
▁እኩልነት	-3675
▁እውነትም	-3676
▁ከእናንተ	-3677
▁የተለያዩ	-3678
▁የአፍሪካ	-3679
▁የኢኮኖሚ	-3680
▁የዘላለም	-3681
▁ያሳዝናል	-3682
▁ለነዋሪዎች	-3683
▁በነገራችን	-3684
▁ክርስቲያን	-3685
▁የተመሰረተ	-3686
▁የአነስተኛ	-3687
▁ብሄርተኝነት	-3688
▁አመሰግናለሁ	-3689
▁እግዚያብሄር	-3690
▁የኤሌክትሪክ	-3691
ag	-3692
em	-3693
ex	-3694
ir	-3695
ot	-3696
ro	-3697
us	-3698
ሁም	-3699
ለደ	-3700
ላስ	-3701
ላቂ	-3702
ሚየ	-3703
ማቅ	-3704
ምሩ	-3705
ሠሩ	-3706
ርታ	-3707
ሮቹ	-3708
ሰህ	-3709
ሳነ	-3710
ሾች	-3711
ቅረ	-3712
ቆሮ	-3713
በህ	-3714
ቧል	-3715
ተዋ	-3716
ተዳ	-3717
ተጋ	-3718
ታፊ	-3719
ቶቼ	-3720
ቸን	-3721
ኒው	-3722
ንጀ	-3723
ኖስ	-3724
ኮም	-3725
ዋሚ	-3726
ውው	-3727
የሚ	-3728
ድል	-3729
ጀን	-3730
ገሉ	-3731
ገም	-3732
ገግ	-3733
ግዝ	-3734
ጎብ	-3735
ጠለ	-3736
ጣዩ	-3737
ጥሮ	-3738
ጥን	-3739
ጻሚ	-3740
ፈህ	-3741
ፈቱ	-3742
ፍጨ	-3743
ፖራ	-3744
▁K	-3745
▁ሢ	-3746
▁ሾ	-3747
▁ጦ	-3748
▁ፉ	-3749
ess	-3750
ill	-3751
ሊስት	-3752
ላለሁ	-3753
ላለፍ	-3754
ልጣን	-3755
ሎችን	-3756
መለሱ	-3757
መልስ	-3758
መስል	-3759
መናት	-3760
ምጣት	-3761
ሯቸው	-3762
ሰራው	-3763
ስማማ	-3764
ቀጦች	-3765
ቂያው	-3766
ቃችሁ	-3767
ብኝት	-3768
ታወቁ	-3769
ንም።	-3770
አዴን	-3771
ከረም	-3772
ከውን	-3773
ኩርት	-3774
ካቸው	-3775
ክሱም	-3776
ዊነት	-3777
ዋእት	-3778
ዘመን	-3779
ጭበር	-3780
ፈሪያ	-3781
ፕራይ	-3782
▁ለጀ	-3783
▁ላለ	-3784
▁ልታ	-3785
▁መራ	-3786
▁ማግ	-3787
▁ምጣ	-3788
▁ሰኞ	-3789
▁ሰአ	-3790
▁ሳል	-3791
▁ሴራ	-3792
▁ቁጥ	-3793
▁ቃለ	-3794
▁ቅዠ	-3795
▁ቆሞ	-3796
▁በፌ	-3797
▁ታግ	-3798
▁ነች	-3799
▁ናይ	-3800
▁አጠ	-3801
▁አጽ	-3802
▁ኢሳ	-3803
▁እሰ	-3804
▁እጣ	-3805
▁ከረ	-3806
▁ከር	-3807
▁ካም	-3808
▁ዋል	-3809
▁ውር	-3810
▁ውስ	-3811
▁ውብ	-3812
▁ዛፍ	-3813
▁የሳ	-3814
▁የቅ	-3815
▁ይነ	-3816
▁ደሃ	-3817
▁ደው	-3818
▁ጎል	-3819
▁ጎረ	-3820
▁ጠባ	-3821
ሃብቶች	-3822
መለከተ	-3823
ምራል።	-3824
ሰብአዊ	-3825
ስተኛው	-3826
በታል።	-3827
ተዋል።	-3828
ንጹሃን	-3829
ከፋፈል	-3830
ካሄደው	-3831
ውቅም።	-3832
ዎቻችን	-3833
ፈለገው	-3834
▁and	-3835
▁ህልም	-3836
▁ህንጻ	-3837
▁ለማው	-3838
▁ላንተ	-3839
▁ልበል	-3840
▁ልብስ	-3841
▁መልካ	-3842
▁ሰርቪ	-3843
▁ሰውን	-3844
▁ስለማ	-3845
▁ስራው	-3846
▁ሽብር	-3847
▁ቀናት	-3848
▁ቀጥሎ	-3849
▁በጀት	-3850
▁ባለማ	-3851
▁ብቃት	-3852
▁ብቸኛ	-3853
▁ተረት	-3854
▁ተቋም	-3855
▁ተክለ	-3856
▁ተጠር	-3857
▁ትርፍ	-3858
▁ቻይና	-3859
▁ነኝ።	-3860
▁ንጉስ	-3861
▁አመለ	-3862
▁አርማ	-3863
▁አርቲ	-3864
▁አባቴ	-3865
▁አብር	-3866
▁አያሌ	-3867
▁አይጥ	-3868
▁አደር	-3869
▁አድና	-3870
▁እምቢ	-3871
▁እብድ	-3872
▁ከምን	-3873
▁ከጎን	-3874
▁ኪሳራ	-3875
▁ወራት	-3876
▁ወታደ	-3877
▁ወይኔ	-3878
▁ወዲያ	-3879
▁ዘርፉ	-3880
▁የመሰ	-3881
▁የማስ	-3882
▁የወሎ	-3883
▁የዘረ	-3884
▁ያንን	-3885
▁ያገኛ	-3886
▁ይረዳ	-3887
▁ይቀጥ	-3888
▁ይወጣ	-3889
▁ይጠበ	-3890
▁ድሮም	-3891
▁ጀግን	-3892
▁ገነት	-3893
▁ጤነኛ	-3894
ስትመንት	-3895
▁News	-3896
▁ለመሆኑ	-3897
▁ሉአላዊ	-3898
▁መስሪያ	-3899
▁መስጊድ	-3900
▁መብራት	-3901
▁መግደል	-3902
▁ማእከል	-3903
▁ምህረት	-3904
▁ምርቶች	-3905
▁ሰሞኑን	-3906
▁ስብስብ	-3907
▁በሃሳብ	-3908
▁በእርግ	-3909
▁በእኩል	-3910
▁በዛሬው	-3911
▁ባለፉት	-3912
▁ቦታዎች	-3913
▁ተከታይ	-3914
▁ትላንት	-3915
▁አምባሳ	-3916
▁አሳፋሪ	-3917
▁አንበሳ	-3918
▁አንገት	-3919
▁አክቲቪ	-3920
▁አደረገ	-3921
▁አጥነት	-3922
▁እንዳያ	-3923
▁እውቅና	-3924
▁እውነታ	-3925
▁እያለቀ	-3926
▁ክፍተት	-3927
▁ወንድሜ	-3928
▁ወንድም	-3929
▁ውሸታም	-3930
▁የሁለት	-3931
▁የሃገሬ	-3932
▁የሚሰጡ	-3933
▁የምታው	-3934
▁የብሄር	-3935
▁የተለየ	-3936
▁የተነሳ	-3937
▁የታገቱ	-3938
▁የአዲሱ	-3939
▁ያልከው	-3940
▁ያውቃሉ	-3941
▁ይቻላል	-3942
▁ጀግኖች	-3943
▁ጌታቸው	-3944
▁ለማግኘት	-3945
▁ለትግራይ	-3946
▁መረጋጋት	-3947
▁መሪያችን	-3948
▁ማሻሻያው	-3949
▁ማበረታቻ	-3950
▁በህይወት	-3951
▁በርቱልን	-3952
▁በጦርነት	-3953
▁በፍጥነት	-3954
▁ቤተሰቦች	-3955
▁ተከታዮች	-3956
▁ነጋዴዎች	-3957
▁አስመሳይ	-3958
▁አታውቅም	-3959
▁አንዳንዴ	-3960
▁እስልምና	-3961
▁እንግልት	-3962
▁እያደረገ	-3963
▁የስልጣን	-3964
▁የተዘጋጀ	-3965
▁ገለልተኛ	-3966
▁ፈጣሪዎች	-3967
▁እንደነበር	-3968
▁እየተካሄደ	-3969
▁ከኢትዮጵያ	-3970
▁የትግራይን	-3971
▁አይመስለኝም	-3972
▁ያስፈልጋል።	-3973
▁ኢትዮጵያዊያን	-3974
DF	-3975
am	-3976
oc	-3977
ul	-3978
ሃም	-3979
ለኛ	-3980
ለጽ	-3981
ልአ	-3982
መሠ	-3983
መጠ	-3984
ሙኒ	-3985
ሚኒ	-3986
ምቶ	-3987
ሣሥ	-3988
ረሱ	-3989
ሪና	-3990
ሷል	-3991
ሻሽ	-3992
ቀቀ	-3993
ቀና	-3994
በስ	-3995
በጥ	-3996
ቱት	-3997
ቲባ	-3998
ቹት	-3999
ንና	-4000
ንጅ	-4001
ንጫ	-4002
አይ	-4003
ከበ	-4004
ካይ	-4005
ክም	-4006
ኮር	-4007
ወረ	-4008
ዋጋ	-4009
ዩን	-4010
ደቅ	-4011
ደባ	-4012
ዲና	-4013
ዴራ	-4014
ገማ	-4015
ጋባ	-4016
ጣለ	-4017
ጣሉ	-4018
ፈነ	-4019
ፈጽ	-4020
ፎካ	-4021
▁V	-4022
▁Z	-4023
▁ጾ	-4024
▁፦	-4025
are	-4026
ent	-4027
ሃንስ	-4028
ለህም	-4029
ለሰብ	-4030
ለቀቁ	-4031
ሚያስ	-4032
ምረት	-4033
ምረው	-4034
ምስት	-4035
ምባሲ	-4036
ሞችን	-4037
ራችሁ	-4038
ቀላቀ	-4039
ቃለሁ	-4040
ቃብር	-4041
ቆራጭ	-4042
በኞች	-4043
ባበር	-4044
ብኛል	-4045
ቪዥን	-4046
ተማር	-4047
ታሰብ	-4048
ቶችህ	-4049
ቻችሁ	-4050
ችበት	-4051
ናችሁ	-4052
እራብ	-4053
ከንቱ	-4054
ወሰን	-4055
ወጣሉ	-4056
ዋቸው	-4057
ይጣን	-4058
ዳል።	-4059
ዳንት	-4060
ጀምር	-4061
ገባኝ	-4062
ገወጥ	-4063
ጋችሁ	-4064
ጣል።	-4065
ጨነቅ	-4066
ጫወት	-4067
ፈናቀ	-4068
ፈዋል	-4069
ፒታል	-4070
▁on	-4071
▁ሄደ	-4072
▁ሆቴ	-4073
▁ለይ	-4074
▁ለጉ	-4075
▁ልደ	-4076
▁መሆ	-4077
▁ምሁ	-4078
▁ምረ	-4079
▁ሥነ	-4080
▁ሲቀ	-4081
▁ስጥ	-4082
▁ቅሬ	-4083
▁ቋሚ	-4084
▁በኮ	-4085
▁ቡድ	-4086
▁ብሩ	-4087
▁ብየ	-4088
▁ተኛ	-4089
▁ተፋ	-4090
▁ነግ	-4091
▁አጼ	-4092
▁ከለ	-4093
▁ከዚ	-4094
▁ከጀ	-4095
▁ከግ	-4096
▁ኪሎ	-4097
▁ውህ	-4098
▁ውሰ	-4099
▁የሱ	-4100
▁ያጣ	-4101
▁ይዤ	-4102
▁ዶሮ	-4103
▁ጅማ	-4104
▁ግቢ	-4105
▁ጠየ	-4106
▁ጥግ	-4107
ህርዳር	-4108
መለከት	-4109
ረሰቦች	-4110
ሰባሰብ	-4111
ስትያን	-4112
ባቸውን	-4113
ነጋገር	-4114
ከባበር	-4115
ከታተል	-4116
ከፍተኛ	-4117
ክሳይዝ	-4118
ጠራጠር	-4119
▁for	-4120
▁ሆኖም	-4121
▁ለምት	-4122
▁ለእኔ	-4123
▁ራሱን	-4124
▁ሲሳይ	-4125
▁ስሙን	-4126
▁ስንቱ	-4127
▁በታች	-4128
▁በነጻ	-4129
▁በእው	-4130
▁በውጭ	-4131
▁በድር	-4132
▁ቢሆን	-4133
▁ባደረ	-4134
▁ብልህ	-4135
▁ተቀም	-4136
▁ተጋሩ	-4137
▁ትችላ	-4138
▁ትኑር	-4139
▁ነዋሪ	-4140
▁ነውና	-4141
▁አሃዳ	-4142
▁አላስ	-4143
▁አልቀ	-4144
▁አስደ	-4145
▁አዋቂ	-4146
▁አደል	-4147
▁አዴፓ	-4148
▁እስኬ	-4149
▁እንቁ	-4150
▁እውን	-4151
▁ከእኔ	-4152
▁ካርድ	-4153
▁ወረኛ	-4154
▁ዘመድ	-4155
▁የሚበ	-4156
▁የሥራ	-4157
▁የቴሌ	-4158
▁የእን	-4159
▁የክል	-4160
▁የዋጋ	-4161
▁የጀመ	-4162
▁ያቀረ	-4163
▁ይህም	-4164
▁ይርዳ	-4165
▁ይቺን	-4166
▁ይድረ	-4167
▁ዳግም	-4168
▁ድንአ	-4169
▁ጊዜው	-4170
▁ጓደኞ	-4171
▁ጥንብ	-4172
▁ፈቃድ	-4173
▁ፈገግ	-4174
ation	-4175
መንግስት	-4176
ርቶዶክስ	-4177
▁ለፍርድ	-4178
▁መልእክ	-4179
▁መሠረት	-4180
▁መስመር	-4181
▁መውሰድ	-4182
▁መግቢያ	-4183
▁ሙስሊሙ	-4184
▁ሚዛናዊ	-4185
▁ማስረጃ	-4186
▁ማሻሻያ	-4187
▁ማቅረብ	-4188
▁ምክንያ	-4189
▁ሥርአት	-4190
▁ሰብሳቢ	-4191
▁በሚለው	-4192
▁በረከት	-4193
▁በቀጥታ	-4194
▁በቅርብ	-4195
▁ቢደረግ	-4196
▁ባለቤት	-4197
▁ብቻውን	-4198
▁ተመልሶ	-4199
▁ተደራጅ	-4200
▁ተደርጎ	-4201
▁ተፈጥሮ	-4202
▁ችግሮች	-4203
▁አለብህ	-4204
▁አላችሁ	-4205
▁አሳሳቢ	-4206
▁አሳዛኝ	-4207
▁አስመል	-4208
▁አስተዳ	-4209
▁አክብሮ	-4210
▁አይተው	-4211
▁እርዳታ	-4212
▁እስማማ	-4213
▁እናቶች	-4214
▁እፈልጋ	-4215
▁ከአንድ	-4216
▁የተሞላ	-4217
▁የክልሉ	-4218
▁የፍቅር	-4219
▁ይሁን።	-4220
▁ይላል።	-4221
▁ይቀራል	-4222
▁ዮሃንስ	-4223
▁ሁላችሁም	-4224
▁ለሃገሪቱ	-4225
▁ለማሳደግ	-4226
▁ለማፍረስ	-4227
▁በቁጥጥር	-4228
▁በየቦታው	-4229
▁በጎንደር	-4230
▁ባልደራስ	-4231
▁አስተያየ	-4232
▁አቀባበል	-4233
▁አይደለሁ	-4234
▁አገራችን	-4235
▁እነዚህን	-4236
▁እንደውም	-4237
▁እንደገና	-4238
▁እንዳለው	-4239
▁ከኤርትራ	-4240
▁ክርስቲያ	-4241
▁የመንገድ	-4242
▁የሚኖረው	-4243
▁የማያውቅ	-4244
▁የነበሩት	-4245
▁የእናንተ	-4246
▁ያደርጋል	-4247
▁ዴሞክራሲ	-4248
▁ግለሰቦች	-4249
▁ጭንቅላት	-4250
▁ፕሮጀክት	-4251
▁አይቀርም።	-4252
▁አደርጋለሁ	-4253
▁እንዳልሆነ	-4254
▁ወገኖቻችን	-4255
▁የመንግሥት	-4256
▁የሚበረታታ	-4257
▁የከተማዋን	-4258
▁ህይወታቸውን	-4259
▁እንፈልጋለን	-4260
▁በትራንስፖርት	-4261
▁ኢትዮጵያዊነት	-4262
▁ዩኒቨርስቲዎች	-4263
TV	-4264
iy	-4265
kk	-4266
ለለ	-4267
ሉና	-4268
ሊዝ	-4269
መኑ	-4270
ማው	-4271
ሞኑ	-4272
ረሻ	-4273
ረበ	-4274
ረና	-4275
ረክ	-4276
ሰሱ	-4277
ሳዝ	-4278
ስቲ	-4279
ቃቂ	-4280
ቅማ	-4281
ቐለ	-4282
በያ	-4283
ቢሮ	-4284
ባር	-4285
ባቱ	-4286
ብቻ	-4287
ብጥ	-4288
ቪል	-4289
ታሉ	-4290
ቹም	-4291
ነዳ	-4292
ናስ	-4293
እዝ	-4294
ካሚ	-4295
ክሽ	-4296
ክ።	-4297
ኮስ	-4298
ኮት	-4299
ዘም	-4300
ዝቃ	-4301
ዝግ	-4302
ዟል	-4303
ያም	-4304
ይዳ	-4305
ደለ	-4306
ደቡ	-4307
ደጓ	-4308
ዱላ	-4309
ዱር	-4310
ድግ	-4311
ጉር	-4312
ጋሩ	-4313
ጋዜ	-4314
ጋዴ	-4315
ጎዳ	-4316
ጓል	-4317
ጓዝ	-4318
ጠህ	-4319
ጠፍ	-4320
ጥሎ	-4321
ጥረ	-4322
ጥና	-4323
ጭን	-4324
ጸል	-4325
ጻር	-4326
ጻፈ	-4327
ጽፍ	-4328
ፍሎ	-4329
ፍሩ	-4330
፣አ	-4331
▁Y	-4332
▁k	-4333
▁ሟ	-4334
▁ቂ	-4335
ike	-4336
med	-4337
oun	-4338
ለትን	-4339
ላትን	-4340
ላችኋ	-4341
ልካም	-4342
መለሰ	-4343
ማል።	-4344
ማማት	-4345
ምህር	-4346
ረኞች	-4347
ራችን	-4348
ሰማው	-4349
ሰሩት	-4350
ስተካ	-4351
ቀርባ	-4352
ቃለን	-4353
ቃይት	-4354
ቅርብ	-4355
ባረር	-4356
ባቸዉ	-4357
ብርና	-4358
ታለሁ	-4359
ቶናል	-4360
ችሁም	-4361
ችሉት	-4362
ችኋል	-4363
ነበብ	-4364
ኑኤል	-4365
ክልም	-4366
ወርድ	-4367
ዎችና	-4368
ያቸው	-4369
ዮጵያ	-4370
ደመር	-4371
ደራዊ	-4372
ዱሳን	-4373
ዳትና	-4374
ገነን	-4375
ገናኘ	-4376
ጨምር	-4377
ጻናት	-4378
ፈጸሙ	-4379
ፖሊሲ	-4380
▁Ab	-4381
▁Am	-4382
▁in	-4383
▁ሃቅ	-4384
▁ለል	-4385
▁ለባ	-4386
▁ለኛ	-4387
▁ሊታ	-4388
▁ሊን	-4389
▁ልና	-4390
▁መከ	-4391
▁መኪ	-4392
▁መጡ	-4393
▁መጻ	-4394
▁ሙያ	-4395
▁ማሽ	-4396
▁ምሳ	-4397
▁ምቾ	-4398
▁ሠዉ	-4399
▁ሳሙ	-4400
▁ስሜ	-4401
▁ስሩ	-4402
▁ሼር	-4403
▁ቀድ	-4404
▁ቁም	-4405
▁ቄሮ	-4406
▁ቅና	-4407
▁ቅጥ	-4408
▁ቆር	-4409
▁በቴ	-4410
▁በኣ	-4411
▁በዳ	-4412
▁ተለ	-4413
▁ተሾ	-4414
▁ተአ	-4415
▁ተደ	-4416
▁ታጣ	-4417
▁ትል	-4418
▁ትስ	-4419
▁ኔእ	-4420
▁ንማ	-4421
▁ንገ	-4422
▁አጎ	-4423
▁አጨ	-4424
▁ኣለ	-4425
▁ኤል	-4426
▁እለ	-4427
▁ከቻ	-4428
▁ዉድ	-4429
▁የሙ	-4430
▁የዞ	-4431
▁ያረ	-4432
▁ያከ	-4433
▁ይሁ	-4434
▁ይዛ	-4435
▁ይፍ	-4436
▁ዳይ	-4437
▁ገዝ	-4438
▁ገጥ	-4439
▁ጸሃ	-4440
▁ጽጌ	-4441
ህበራዊ	-4442
ሆናቸው	-4443
ለስላሴ	-4444
ላቸዋል	-4445
መሰረት	-4446
ምቦልቻ	-4447
ሸባሪው	-4448
ቆጣጠር	-4449
ባሪዎች	-4450
ንግተን	-4451
ንግዲህ	-4452
ኖራቸው	-4453
ካባቢው	-4454
ዘጋጀት	-4455
ደራጀት	-4456
ጆቻችን	-4457
ገደሉት	-4458
ጠናከር	-4459
ፎካካሪ	-4460
▁BBC	-4461
▁the	-4462
▁ሂሳብ	-4463
▁ሃዋሳ	-4464
▁ሃዘን	-4465
▁ለመጥ	-4466
▁ለመፍ	-4467
▁ለሚያ	-4468
▁ለስራ	-4469
▁ለብር	-4470
▁ለወደ	-4471
▁ለገሰ	-4472
▁ልማቱ	-4473
▁መሃይ	-4474
▁መሞት	-4475
▁መራራ	-4476
▁መንፈ	-4477
▁መያዝ	-4478
▁መጫወ	-4479
▁ሙከራ	-4480
▁ሚዛን	-4481
▁ማመን	-4482
▁ምናለ	-4483
▁ምኞት	-4484
▁ሞገስ	-4485
▁ርበነ	-4486
▁ርእስ	-4487
▁ሰይፉ	-4488
▁ሰጥቷ	-4489
▁ሲኦል	-4490
▁ስህተ	-4491
▁ስለሌ	-4492
▁ስላል	-4493
▁ስልጣ	-4494
▁ስዩም	-4495
▁ቀለም	-4496
▁ቀውስ	-4497
▁በለን	-4498
▁በመቶ	-4499
▁በማይ	-4500
▁በስራ	-4501
▁በቀር	-4502
▁በባዶ	-4503
▁በብዙ	-4504
▁በተመ	-4505
▁በተቃ	-4506
▁በገዛ	-4507
▁ቢመቻ	-4508
▁ቪዲዮ	-4509
▁ተመር	-4510
▁ተረጋ	-4511
▁ተቀብ	-4512
▁ተባለ	-4513
▁ታላቁ	-4514
▁ታክሲ	-4515
▁ታዳጊ	-4516
▁ትግራ	-4517
▁ነብስ	-4518
▁ነን።	-4519
▁ንገረ	-4520
▁ንጹህ	-4521
▁አመጣ	-4522
▁አረጋ	-4523
▁አርጎ	-4524
▁አሳይ	-4525
▁አንገ	-4526
▁አይቻ	-4527
▁አዳማ	-4528
▁አገባ	-4529
▁ኢትዬ	-4530
▁እህት	-4531
▁እራስ	-4532
▁እናቴ	-4533
▁እያወ	-4534
▁እገዛ	-4535
▁ከሰው	-4536
▁ከስራ	-4537
▁ከብት	-4538
▁ክልሉ	-4539
▁ወዴት	-4540
▁የመግ	-4541
▁የሚሻ	-4542
▁የቀን	-4543
▁የባለ	-4544
▁የተላ	-4545
▁የተጠ	-4546
▁የአቶ	-4547
▁የአው	-4548
▁የከፋ	-4549
▁የዋህ	-4550
▁የደም	-4551
▁ያለፈ	-4552
▁ያሳየ	-4553
▁ያወጣ	-4554
▁ያድር	-4555
▁ይመሰ	-4556
▁ይሰጥ	-4557
▁ይከፍ	-4558
▁ደቡብ	-4559
▁ዱቄት	-4560
▁ገለጹ	-4561
▁ጉራጌ	-4562
▁ጥልቅ	-4563
▁ጩኸት	-4564
▁ጭራሽ	-4565
▁ጽንፈ	-4566
▁ፈንታ	-4567
▁ፈጣን	-4568
ንቀሳቀሱ	-4569
ንተርኔት	-4570
▁ሃጢአት	-4571
▁ለማስቀ	-4572
▁ለአለም	-4573
▁መለየት	-4574
▁መመለስ	-4575
▁መምራት	-4576
▁ምልክት	-4577
▁ምእራፍ	-4578
▁ራስህን	-4579
▁ሰዎችን	-4580
▁በአገር	-4581
▁በአፋር	-4582
▁በፍቅር	-4583
▁ተቃዋሚ	-4584
▁ተወላጅ	-4585
▁ነበርኩ	-4586
▁ነፍስህ	-4587
▁አልገባ	-4588
▁አምስት	-4589
▁አስቀም	-4590
▁አስታው	-4591
▁አብይን	-4592
▁አንደኛ	-4593
▁አይሰማ	-4594
▁አደገኛ	-4595
▁እስከሚ	-4596
▁እንደቀ	-4597
▁እየሰሩ	-4598
▁እየታየ	-4599
▁እያለን	-4600
▁እያልን	-4601
▁እድሳት	-4602
▁እጅህን	-4603
▁ኦሮምያ	-4604
▁ከንቲባ	-4605
▁ክልሎች	-4606
▁ወላጆች	-4607
▁ወደኋላ	-4608
▁የሚቀር	-4609
▁የተመረ	-4610
▁የተረገ	-4611
▁የተቃጠ	-4612
▁የተወለ	-4613
▁የአንተ	-4614
▁የአፋር	-4615
▁የኦነግ	-4616
▁የውስጥ	-4617
▁የደረሰ	-4618
▁ድሬዳዋ	-4619
▁ድብደባ	-4620
▁ግምገማ	-4621
▁ጥቃቅን	-4622
▁ጥንቃቄ	-4623
▁ጽዳትና	-4624
▁ሚዲያዎች	-4625
▁በምእራብ	-4626
▁ታማኝነት	-4627
▁ትእግስት	-4628
▁አስቸጋሪ	-4629
▁አስፈጻሚ	-4630
▁እናደርጋ	-4631
▁እንደምታ	-4632
▁እወዳለሁ	-4633
▁እየተሰራ	-4634
▁እየተባለ	-4635
▁እያላችሁ	-4636
▁ከህወሃት	-4637
▁ዘላለማዊ	-4638
▁የሃገሪቱ	-4639
▁የህይወት	-4640
▁የሚሆነው	-4641
▁የሚደረግ	-4642
▁የተሰጠው	-4643
▁የእውቀት	-4644
▁የኮሪደር	-4645
▁ያላቸውን	-4646
▁ያደረጉት	-4647
▁ይለወጣሉ	-4648
▁ይመስገን	-4649
▁ይገርማል	-4650
▁ይገኛል።	-4651
▁ዲፕሎማሲ	-4652
▁ፈጥሯል።	-4653
▁ለመከላከል	-4654
▁ለምንድነው	-4655
▁መሆናቸውን	-4656
▁መታወቂያው	-4657
▁በተገኙበት	-4658
▁በአንድነት	-4659
▁ባለሃብቶች	-4660
▁ተማሪዎችን	-4661
▁አልፈልግም	-4662
▁እፈልጋለሁ	-4663
▁ከመንግስት	-4664
▁ከብልጽግና	-4665
▁የመጨረሻው	-4666
▁የሚሰማቸው	-4667
▁የሚፈልገው	-4668
▁የኢህአዴግ	-4669
▁ይመስላል።	-4670
▁ትራንስፖርት	-4671
▁የሚያደርገው	-4672
▁የአገልግሎት	-4673
▁በእግዚአብሄር	-4674
MN	-4675
ap	-4676
gr	-4677
ld	-4678
od	-4679
ለጸ	-4680
ላሽ	-4681
ልባ	-4682
ልቶ	-4683
መህ	-4684
መቀ	-4685
መበ	-4686
ሙም	-4687
ም፤	-4688
ረታ	-4689
ረከ	-4690
ሪም	-4691
ራቴ	-4692
ራጌ	-4693
ርና	-4694
ሰና	-4695
ሲል	-4696
ሳሰ	-4697
ሳዊ	-4698
ስነ	-4699
ስው	-4700
ስ፣	-4701
ሷን	-4702
ቀቁ	-4703
ቂኝ	-4704
ቅቅ	-4705
በበ	-4706
በይ	-4707
በጠ	-4708
ቤላ	-4709
ብሳ	-4710
ብሽ	-4711
ብቃ	-4712
ብድ	-4713
ብጽ	-4714
ተም	-4715
ተነ	-4716
ተገ	-4717
ተፍ	-4718
ነብ	-4719
ነቴ	-4720
ነገ	-4721
ንቶ	-4722
ንዴ	-4723
ንጋ	-4724
ን።	-4725
ኖቹ	-4726
ኝን	-4727
አለ	-4728
አያ	-4729
ኪኪ	-4730
ካሽ	-4731
ካተ	-4732
ካች	-4733
ካው	-4734
ክተ	-4735
ኸን	-4736
ወዝ	-4737
ዋው	-4738
ዘና	-4739
ዙን	-4740
ዞር	-4741
የአ	-4742
ዳቹ	-4743
ድሩ	-4744
ድዮ	-4745
ጅቱ	-4746
ገዴ	-4747
ገፋ	-4748
ግሳ	-4749
ግስ	-4750
ጓጓ	-4751
ጠፉ	-4752
ጣኝ	-4753
ጨር	-4754
ጪው	-4755
ጸሃ	-4756
ጸን	-4757
ጻድ	-4758
ፊው	-4759
ፋቱ	-4760
ፌዴ	-4761
ፍያ	-4762
፣በ	-4763
▁r	-4764
▁ቺ	-4765
▁ቼ	-4766
▁ጮ	-4767
▁ጳ	-4768
▁ጴ	-4769
IMZ	-4770
all	-4771
ank	-4772
art	-4773
hat	-4774
ህሣሥ	-4775
ሆኑት	-4776
ሊበላ	-4777
ልድይ	-4778
ማችን	-4779
ሞክር	-4780
ርተው	-4781
ሰተኛ	-4782
ሰው።	-4783
ሳስበ	-4784
ሳነያ	-4785
ስብም	-4786
ስተዋ	-4787
ቁርና	-4788
ቋቋም	-4789
ቡድን	-4790
ቤቶች	-4791
ታትን	-4792
ታደር	-4793
ቸኳይ	-4794
ቸውም	-4795
ቻለም	-4796
ችግር	-4797
ነበር	-4798
ናትህ	-4799
ናገረ	-4800
ንስሃ	-4801
ንቀት	-4802
ንባታ	-4803
ከሰት	-4804
ከተል	-4805
ካችን	-4806
ኬሽን	-4807
ክሽን	-4808
ክብር	-4809
ክተው	-4810
ወራው	-4811
ወትር	-4812
ዞችን	-4813
የሁት	-4814
ያለሽ	-4815
ደለም	-4816
ደስት	-4817
ደትን	-4818
ደግፍ	-4819
ዳችን	-4820
ዳዳሪ	-4821
ድሮስ	-4822
ዶችን	-4823
ገባት	-4824
ገድል	-4825
ጉትን	-4826
ጋንዳ	-4827
ጋዴው	-4828
ግርኛ	-4829
ግባቡ	-4830
ጠበቀ	-4831
ጠየቅ	-4832
ጥረው	-4833
ጨፈጭ	-4834
ጲያን	-4835
ፏል።	-4836
▁Tw	-4837
▁ህይ	-4838
▁ለሆ	-4839
▁ልጁ	-4840
▁መሣ	-4841
▁መሬ	-4842
▁ሚል	-4843
▁ማል	-4844
▁ማረ	-4845
▁ምዝ	-4846
▁ሰፈ	-4847
▁ሱእ	-4848
▁ሲዘ	-4849
▁ሳላ	-4850
▁ስማ	-4851
▁ስው	-4852
▁በሱ	-4853
▁በቦ	-4854
▁በኛ	-4855
▁ባሉ	-4856
▁ተሞ	-4857
▁ተስ	-4858
▁ተኝ	-4859
▁ታሪ	-4860
▁ታጋ	-4861
▁ቴዲ	-4862
▁ትራ	-4863
▁ትው	-4864
▁ነቅ	-4865
▁ንች	-4866
▁አሊ	-4867
▁አቢ	-4868
▁አነ	-4869
▁ኣህ	-4870
▁እት	-4871
▁ከሊ	-4872
▁ወሮ	-4873
▁ወጪ	-4874
▁ውል	-4875
▁ውቸ	-4876
▁ዘፈ	-4877
▁ዝር	-4878
▁የረ	-4879
▁የች	-4880
▁የና	-4881
▁የዝ	-4882
▁የጅ	-4883
▁ያር	-4884
▁ያደ	-4885
▁ያጋ	-4886
▁ዳው	-4887
▁ገላ	-4888
▁ጋሼ	-4889
▁ጠጋ	-4890
▁ጨፍ	-4891
▁ፍጡ	-4892
oooo	-4893
ለታችን	-4894
ለአለም	-4895
ልስፍና	-4896
ስተካከ	-4897
ቀጥለው	-4898
ክራችሁ	-4899
ወያየት	-4900
ያቸውን	-4901
▁ህግና	-4902
▁ሆቴል	-4903
▁ለህዝ	-4904
▁ለማይ	-4905
▁ለብሶ	-4906
▁ለውጡ	-4907
▁ለውጭ	-4908
▁ለየት	-4909
▁ለገና	-4910
▁ሌሎቹ	-4911
▁ልጅም	-4912
▁መሄድ	-4913
▁መልአ	-4914
▁መቻል	-4915
▁መከል	-4916
▁መወሰ	-4917
▁መገኘ	-4918
▁ምርት	-4919
▁ምርኮ	-4920
▁ምጣበ	-4921
▁ሞራል	-4922
▁ሰሜን	-4923
▁ሰውየ	-4924
▁ስለት	-4925
▁ስቃይ	-4926
▁ስታይ	-4927
▁ቀዳዳ	-4928
▁ቅሬታ	-4929
▁በሃይ	-4930
▁በመቀ	-4931
▁በሞት	-4932
▁በሰማ	-4933
▁በሰው	-4934
▁በወሎ	-4935
▁በዚሁ	-4936
▁በየአ	-4937
▁በይፋ	-4938
▁በደም	-4939
▁ቡልቻ	-4940
▁ቢቀር	-4941
▁ቢያስ	-4942
▁ባክህ	-4943
▁ብርቅ	-4944
▁ተሰጥ	-4945
▁ተሸክ	-4946
▁ተደብ	-4947
▁ታማኝ	-4948
▁ትሆና	-4949
▁ትተን	-4950
▁ትንታ	-4951
▁ትዊት	-4952
▁ነዎት	-4953
▁አላት	-4954
▁አመቱ	-4955
▁አምራ	-4956
▁አርሲ	-4957
▁አርባ	-4958
▁አሰፋ	-4959
▁አቤቱ	-4960
▁አገኘ	-4961
▁አገው	-4962
▁አጠቃ	-4963
▁ኢንቨ	-4964
▁ኣማራ	-4965
▁እምዬ	-4966
▁እናቱ	-4967
▁እየሞ	-4968
▁እየዋ	-4969
▁እይታ	-4970
▁እገታ	-4971
▁ከሃዲ	-4972
▁ከልብ	-4973
▁ከልክ	-4974
▁ከምት	-4975
▁ከእነ	-4976
▁ከእኛ	-4977
▁ካስሽ	-4978
▁ክብረ	-4979
▁ክፉኛ	-4980
▁ወርቅ	-4981
▁ወንዝ	-4982
▁ውለታ	-4983
▁ዘገባ	-4984
▁ዝናብ	-4985
▁የሊዝ	-4986
▁የሌላ	-4987
▁የሚለ	-4988
▁የራስ	-4989
▁የበዛ	-4990
▁የተማ	-4991
▁የእም	-4992
▁የእስ	-4993
▁የከረ	-4994
▁የወጪ	-4995
▁የያዘ	-4996
▁የያዙ	-4997
▁የግድ	-4998
▁የፈረ	-4999
▁ይለያ	-5000
▁ይወስ	-5001
▁ይዘህ	-5002
▁ይግባ	-5003
▁ደግሞ	-5004
▁ድምጻ	-5005
▁ድራማ	-5006
▁ጀርባ	-5007
▁ገለጸ	-5008
▁ግርማ	-5009
▁ግዛት	-5010
▁ግዴታ	-5011
▁ግድቡ	-5012
▁ጎዳና	-5013
▁ጎጃም	-5014
▁ጠብቅ	-5015
▁ጠይቀ	-5016
▁ጣልቃ	-5017
▁ጭፍጨ	-5018
▁ፕሮፓ	-5019
ሰቦቻቸው	-5020
ሽንግተን	-5021
ብረተሰብ	-5022
ነታችንን	-5023
ንዱስትሪ	-5024
ፕራይዞች	-5025
▁ሁለቱም	-5026
▁ሃሃሃሃ	-5027
▁ሃገሪቱ	-5028
▁ህዝብና	-5029
▁ህገወጥ	-5030
▁ሆኗል።	-5031
▁ለመሆን	-5032
▁ለኢትዮ	-5033
▁ላሊበላ	-5034
▁ሌብነት	-5035
▁መሞከር	-5036
▁መጠየቅ	-5037
▁ማለቂያ	-5038
▁ማንንም	-5039
▁ማፈሪያ	-5040
▁ምክትል	-5041
▁ሲጀመር	-5042
▁ስርጭት	-5043
▁ስብእና	-5044
▁በሙስሊ	-5045
▁በማየት	-5046
▁በምድር	-5047
▁በቀላሉ	-5048
▁በብሄር	-5049
▁በተስፋ	-5050
▁በከተማ	-5051
▁በከንቱ	-5052
▁በደቡብ	-5053
▁በድጋሚ	-5054
▁ቢሊዮን	-5055
▁ብአዴን	-5056
▁ብዙሃን	-5057
▁ብዙዎች	-5058
▁ተንኮል	-5059
▁ተከትሎ	-5060
▁ተወልዶ	-5061
▁ናችሁ።	-5062
▁አላማው	-5063
▁አልቻል	-5064
▁አመለካ	-5065
▁አመቱን	-5066
▁አማራው	-5067
▁አርአያ	-5068
▁አሰቃቂ	-5069
▁አንጻር	-5070
▁አከባቢ	-5071
▁አያሌው	-5072
▁አይገር	-5073
▁አድርጌ	-5074
▁አጥንት	-5075
▁አፍራሽ	-5076
▁እስካል	-5077
▁እንስሳ	-5078
▁እንደአ	-5079
▁እንድን	-5080
▁እንግዳ	-5081
▁እዉነት	-5082
▁እያልክ	-5083
▁እያወራ	-5084
▁ከሌላው	-5085
▁ከማንም	-5086
▁ከጎንህ	-5087
▁ክትትል	-5088
▁ወንበዴ	-5089
▁ወንድሞ	-5090
▁ወንጌል	-5091
▁ውድድር	-5092
▁ዜጎችን	-5093
▁ዝቅተኛ	-5094
▁የልደት	-5095
▁የመሰለ	-5096
▁የሚሰጥ	-5097
▁የሚኖሩ	-5098
▁የሚዲያ	-5099
▁የሚገኘ	-5100
▁የራስን	-5101
▁የሲቪል	-5102
▁የሴቶች	-5103
▁የበአል	-5104
▁የተሰማ	-5105
▁የታሪክ	-5106
▁የትግሬ	-5107
▁የኢራን	-5108
▁የእግር	-5109
▁የወንድ	-5110
▁የደቡብ	-5111
▁የጀመር	-5112
▁የገበያ	-5113
▁የገጠር	-5114
▁ያላችሁ	-5115
▁ይጠብቃ	-5116
▁ደስተኛ	-5117
▁ግብርና	-5118
▁ግንቦት	-5119
▁ጠላቶች	-5120
▁ጥምረት	-5121
▁ጥንታዊ	-5122
▁ጥንካሬ	-5123
▁ጽንፈኛ	-5124
▁ፈረንጅ	-5125
▁ህገመንግ	-5126
▁ለብርሃነ	-5127
▁ለነጋዴው	-5128
▁ለዘመናት	-5129
▁መግባባት	-5130
▁መጨረሻው	-5131
▁ማስተዋል	-5132
▁ማስወገድ	-5133
▁ሽንኩርት	-5134
▁በህወሃት	-5135
▁በሰላማዊ	-5136
▁በተለያዩ	-5137
▁በአማርኛ	-5138
▁በአግባቡ	-5139
▁በኤርትራ	-5140
▁ባህርዳር	-5141
▁ተመሳሳይ	-5142
▁ተግባራዊ	-5143
▁ተጠናክሮ	-5144
▁አሳምነው	-5145
▁አስተላል	-5146
▁አብዛኛው	-5147
▁አነስተኛ	-5148
▁አይቻልም	-5149
▁እንኳንም	-5150
▁እየደረሰ	-5151
▁ወንጀለኛ	-5152
▁የላቸውም	-5153
▁የሙስሊም	-5154
▁የሚመራው	-5155
▁የሚቆጠሩ	-5156
▁የማይችል	-5157
▁የቀረበው	-5158
▁የተፈጥሮ	-5159
▁የቱሪዝም	-5160
▁የእርስዎ	-5161
▁የእውነት	-5162
▁የከተማው	-5163
▁የጎንደር	-5164
▁ያስፈልገ	-5165
▁ጀግንነት	-5166
▁ገብተዋል	-5167
▁ግልጽነት	-5168
▁ጥያቄዎች	-5169
▁ፍልስፍና	-5170
▁Hahaha	-5171
▁መንግስታት	-5172
▁በሃይማኖት	-5173
▁በመጀመሪያ	-5174
▁በምክንያት	-5175
▁በተመሳሳይ	-5176
▁በአጠቃላይ	-5177
▁ብሄረሰቦች	-5178
▁አምባሳደር	-5179
▁አይደለሁም	-5180
▁ከእንግዲህ	-5181
▁ክርስትያን	-5182
▁የሚገርመው	-5183
▁የተናገረው	-5184
▁የአካባቢው	-5185
▁የአገራችን	-5186
▁ዩንቨርስቲ	-5187
▁ጠንክራችሁ	-5188
ልልልልልልልል	-5189
▁ባለስልጣናት	-5190
▁አገልግሎቶች	-5191
▁የአስተዳደር	-5192
▁የኢንተርኔት	-5193
▁የትራንስፖርት	-5194
ab	-5195
ak	-5196
ch	-5197
eb	-5198
et	-5199
if	-5200
os	-5201
pp	-5202
ts	-5203
ለዱ	-5204
ለፈ	-5205
ላባ	-5206
ልቱ	-5207
ሏት	-5208
መዘ	-5209
ምላ	-5210
ምረ	-5211
ም፥	-5212
ሩቅ	-5213
ራኒ	-5214
ራፍ	-5215
ርዱ	-5216
ርፍ	-5217
ሮው	-5218
ሰሰ	-5219
ሰቅ	-5220
ሳሉ	-5221
ሳቹ	-5222
ሳች	-5223
ሳው	-5224
ስለ	-5225
ስቅ	-5226
ሻው	-5227
ሽኝ	-5228
ቀበ	-5229
ቀይ	-5230
ቃስ	-5231
ቃብ	-5232
ቃጥ	-5233
ቅል	-5234
ቆይ	-5235
በሰ	-5236
በዙ	-5237
ቡሽ	-5238
ብል	-5239
ብያ	-5240
ቫይ	-5241
ቭል	-5242
ቶት	-5243
ቸግ	-5244
ቼን	-5245
ቾቹ	-5246
ነሽ	-5247
ንጎ	-5248
ኗን	-5249
አሉ	-5250
እለ	-5251
እኔ	-5252
ከፊ	-5253
ኬት	-5254
ክላ	-5255
ክሪ	-5256
ክና	-5257
ወል	-5258
ወን	-5259
ወግ	-5260
ዋሽ	-5261
ው፣	-5262
ዘመ	-5263
ዘዝ	-5264
የረ	-5265
ያሉ	-5266
ይታ	-5267
ዲት	-5268
ዳው	-5269
ድዋ	-5270
ዶቹ	-5271
ጂው	-5272
ጃል	-5273
ጅድ	-5274
ገፍ	-5275
ግማ	-5276
ግዛ	-5277
ጓድ	-5278
ጠሮ	-5279
ጠነ	-5280
ጥሩ	-5281
ጫው	-5282
ጫጫ	-5283
ጹት	-5284
ጻጸ	-5285
ፈና	-5286
ፍሬ	-5287
ፎር	-5288
ፏል	-5289
▁ዚ	-5290
▁ዥ	-5291
▁ዬ	-5292
▁ጂ	-5293
▁ጄ	-5294
▁ፐ	-5295
▁ፔ	-5296
▁፲	-5297
age	-5298
ain	-5299
ant	-5300
eel	-5301
har	-5302
ian	-5303
ist	-5304
ity	-5305
ሃለን	-5306
ሃገር	-5307
ህም።	-5308
ሆኑም	-5309
ሆንን	-5310
ለምኑ	-5311
ላችይ	-5312
ላዎች	-5313
ልና።	-5314
መጣም	-5315
ረውም	-5316
ሩት።	-5317
ሪዎቹ	-5318
ሪያው	-5319
ራምፕ	-5320
ራቶች	-5321
ራኤል	-5322
ርመን	-5323
ሰላም	-5324
ሰራም	-5325
ሰጥም	-5326
ሳተፉ	-5327
ስቀሳ	-5328
ስተዳ	-5329
ስታው	-5330
ስፖራ	-5331
ሸንፍ	-5332
ሻለሁ	-5333
ሽከር	-5334
ቀበል	-5335
ቁርጥ	-5336
ቃወም	-5337
ቅናቄ	-5338
ቆየት	-5339
ቋል።	-5340
በለጽ	-5341
ባኖስ	-5342
ብሪካ	-5343
ተማረ	-5344
ታወስ	-5345
ቸዉን	-5346
ቻይና	-5347
ነሳል	-5348
ንምለ	-5349
ኖረን	-5350
ኖሪያ	-5351
ከተመ	-5352
ከፍት	-5353
ኩበት	-5354
ኩዋን	-5355
ክበት	-5356
ክፈል	-5357
ወርቅ	-5358
ወጣት	-5359
ዋሃዱ	-5360
ዎቹም	-5361
ዘጋጁ	-5362
ዝነው	-5363
ያለው	-5364
ያውም	-5365
ያውቁ	-5366
ያያዘ	-5367
ደናቀ	-5368
ዳለች	-5369
ዳችሁ	-5370
ጃዋር	-5371
ገለጸ	-5372
ገመት	-5373
ገኝም	-5374
ጠሩት	-5375
ጠቀመ	-5376
ጠቀሙ	-5377
ጠይቁ	-5378
ጽናና	-5379
ፈውን	-5380
ፊዎች	-5381
ፋቸው	-5382
ፍነው	-5383
▁Pr	-5384
▁be	-5385
▁re	-5386
▁ሁኖ	-5387
▁ሃሃ	-5388
▁ሄዶ	-5389
▁ሆስ	-5390
▁ሆኜ	-5391
▁ላሽ	-5392
▁ልያ	-5393
▁መጽ	-5394
▁መፋ	-5395
▁ሚስ	-5396
▁ማፍ	-5397
▁ሥለ	-5398
▁ሰሌ	-5399
▁ሰጠ	-5400
▁ሰጪ	-5401
▁ሲሰ	-5402
▁ሳታ	-5403
▁ስና	-5404
▁ስያ	-5405
▁ሹፌ	-5406
▁ቀበ	-5407
▁ቀና	-5408
▁ቀኝ	-5409
▁ቀደ	-5410
▁ቆም	-5411
▁ቆራ	-5412
▁በኤ	-5413
▁በጨ	-5414
▁ተር	-5415
▁ትም	-5416
▁ትግ	-5417
▁ኋላ	-5418
▁ነክ	-5419
▁ንህ	-5420
▁ንቃ	-5421
▁አቻ	-5422
▁አዉ	-5423
▁አዝ	-5424
▁እሾ	-5425
▁እኩ	-5426
▁ከኤ	-5427
▁ከጥ	-5428
▁ክስ	-5429
▁ዘፋ	-5430
▁ዜጎ	-5431
▁የሶ	-5432
▁የዳ	-5433
▁የዶ	-5434
▁ያድ	-5435
▁ይሸ	-5436
▁ይአ	-5437
▁ይኸ	-5438
▁ይጀ	-5439
▁ይጥ	-5440
▁ደሳ	-5441
▁ዱላ	-5442
▁ዴን	-5443
▁ድክ	-5444
▁ዶማ	-5445
▁ጅብ	-5446
▁ጋሽ	-5447
▁ግል	-5448
▁ጠፍ	-5449
▁ጫማ	-5450
▁ጸሎ	-5451
▁ፈጽ	-5452
▁ፍር	-5453
hmed	-5454
ሆናችሁ	-5455
ላችሁ።	-5456
መስረት	-5457
መናችን	-5458
ረጋገጫ	-5459
ሳችሁን	-5460
ሳይንስ	-5461
ስብስብ	-5462
ስትንፋ	-5463
ቃወሙት	-5464
በነልአ	-5465
ተናል።	-5466
ከብድም	-5467
ድንጋይ	-5468
ገራቸው	-5469
ገራችሁ	-5470
ገባችሁ	-5471
ጌታቸው	-5472
▁ሃበሻ	-5473
▁ለብዙ	-5474
▁ሊኖር	-5475
▁ላለመ	-5476
▁ልምድ	-5477
▁መለስ	-5478
▁መረራ	-5479
▁መሪዬ	-5480
▁መርህ	-5481
▁መነሳ	-5482
▁መንጋ	-5483
▁መዝና	-5484
▁መጠና	-5485
▁መጣል	-5486
▁መጻኢ	-5487
▁ማለቱ	-5488
▁ማለፍ	-5489
▁ማንን	-5490
▁ምላስ	-5491
▁ምስል	-5492
▁ምቾት	-5493
▁ምኞቴ	-5494
▁ረሃብ	-5495
▁ረገድ	-5496
▁ሰናይ	-5497
▁ሲሄዱ	-5498
▁ሳያስ	-5499
▁ስንል	-5500
▁ስፍራ	-5501
▁ቅዠት	-5502
▁ቅድም	-5503
▁ቅጣት	-5504
▁በስር	-5505
▁በክል	-5506
▁በወሬ	-5507
▁በዚያ	-5508
▁በገና	-5509
▁በግድ	-5510
▁በግፍ	-5511
▁ባቡር	-5512
▁ተመራ	-5513
▁ተረድ	-5514
▁ተሰብ	-5515
▁ተብዬ	-5516
▁ተነስ	-5517
▁ተወስ	-5518
▁ታድያ	-5519
▁ትኖራ	-5520
▁ትጥቅ	-5521
▁ነህ።	-5522
▁ነጮች	-5523
▁አሁን	-5524
▁አህያ	-5525
▁አለህ	-5526
▁አለፈ	-5527
▁አልኩ	-5528
▁አስቀ	-5529
▁አብዮ	-5530
▁አናው	-5531
▁አውል	-5532
▁አውቅ	-5533
▁አይና	-5534
▁አይኖ	-5535
▁እሱም	-5536
▁እባብ	-5537
▁እቺን	-5538
▁እኮ።	-5539
▁እየሰ	-5540
▁እየከ	-5541
▁እየዘ	-5542
▁እጥፍ	-5543
▁ኦፌኮ	-5544
▁ከግብ	-5545
▁ኪራይ	-5546
▁ወልደ	-5547
▁ውስጥ	-5548
▁ዘራፊ	-5549
▁የሚሸ	-5550
▁የሚን	-5551
▁የሞት	-5552
▁የሰማ	-5553
▁የሰረ	-5554
▁የቆየ	-5555
▁የተነ	-5556
▁የትም	-5557
▁የነሱ	-5558
▁የኢት	-5559
▁የክር	-5560
▁የወን	-5561
▁የዘመ	-5562
▁የዜና	-5563
▁የዱር	-5564
▁የገጠ	-5565
▁የጋዜ	-5566
▁የግን	-5567
▁የፕሮ	-5568
▁ያለም	-5569
▁ያላት	-5570
▁ይመር	-5571
▁ይሻል	-5572
▁ደመቀ	-5573
▁ዲያቢ	-5574
▁ገብር	-5575
▁ገደል	-5576
▁ጉዲና	-5577
▁ግብአ	-5578
▁ግጥም	-5579
▁ግጭት	-5580
▁ጠቅላ	-5581
▁ጥስው	-5582
▁ጨለማ	-5583
▁ጸሎት	-5584
▁ጸጥታ	-5585
▁ፈረሰ	-5586
▁ፈጠራ	-5587
▁ፋይዳ	-5588
▁ፍቃድ	-5589
▁ፍቱን	-5590
▁ፍጡር	-5591
ሙኒኬሽን	-5592
ስተካከል	-5593
ዋእትነት	-5594
ዴሞክራሲ	-5595
▁Abiy	-5596
▁like	-5597
▁ሃገሩን	-5598
▁ሆናችሁ	-5599
▁ለሁለት	-5600
▁ለሃገሬ	-5601
▁ለመሄድ	-5602
▁ለመማር	-5603
▁ለመኖር	-5604
▁ለማዳን	-5605
▁ለምርጫ	-5606
▁ለአንተ	-5607
▁ለኦሮሞ	-5608
▁ለከተማ	-5609
▁ለደሃው	-5610
▁ለጀማሪ	-5611
▁ሌሎችም	-5612
▁መሃይም	-5613
▁መምህር	-5614
▁መምጣት	-5615
▁መረዳት	-5616
▁መስቀል	-5617
▁መታደግ	-5618
▁መንግሥ	-5619
▁መኪኖች	-5620
▁መኮንን	-5621
▁መደበኛ	-5622
▁መገናኛ	-5623
▁መጠቀም	-5624
▁መጥቷል	-5625
▁መጫወቻ	-5626
▁ማሸነፍ	-5627
▁ማድረጉ	-5628
▁ምስክር	-5629
▁ምንዛሬ	-5630
▁ሥልጣን	-5631
▁ራሳቸው	-5632
▁ሰራተኛ	-5633
▁ሳይንስ	-5634
▁ስልጠና	-5635
▁ስርአተ	-5636
▁ስፖርት	-5637
▁ሸቀጦች	-5638
▁ሽልማት	-5639
▁ሽግግር	-5640
▁ቅንነት	-5641
▁ቅዱሳን	-5642
▁በህይወ	-5643
▁በልመና	-5644
▁በርግጥ	-5645
▁በስሜት	-5646
▁በተረፈ	-5647
▁በታሪክ	-5648
▁በወያኔ	-5649
▁በጭራሽ	-5650
▁በፍትህ	-5651
▁ባልደረ	-5652
▁ባሻገር	-5653
▁ባይኖር	-5654
▁ብልግና	-5655
▁ተሳታፊ	-5656
▁ተቃውሞ	-5657
▁ተደረገ	-5658
▁ታሪክን	-5659
▁ትልቁን	-5660
▁ትምህር	-5661
▁ትስስር	-5662
▁ትንታኔ	-5663
▁ትግርኛ	-5664
▁ነበረ።	-5665
▁ንቅናቄ	-5666
▁ንገረኝ	-5667
▁አለምን	-5668
▁አልበም	-5669
▁አመጣው	-5670
▁አረመኔ	-5671
▁አሽከር	-5672
▁አበባን	-5673
▁አንቀጽ	-5674
▁አክባሪ	-5675
▁አውሮፓ	-5676
▁አዘጋጅ	-5677
▁አዳዲስ	-5678
▁ኤምባሲ	-5679
▁እቃዎች	-5680
▁እንችላ	-5681
▁እንዳታ	-5682
▁እያደረ	-5683
▁እጅጉን	-5684
▁ከሁሉም	-5685
▁ከህዝብ	-5686
▁ከአማራ	-5687
▁ከኦሮሞ	-5688
▁ክልሉን	-5689
▁ኮሚሽን	-5690
▁ዘርፉን	-5691
▁ዝቅጠት	-5692
▁የሁሉም	-5693
▁የሃበሻ	-5694
▁የህዳሴ	-5695
▁የሆነች	-5696
▁የሆኑት	-5697
▁የለውጥ	-5698
▁የመሬት	-5699
▁የማንም	-5700
▁የምግብ	-5701
▁የሰጠው	-5702
▁የባህል	-5703
▁የባህር	-5704
▁የተሰጠ	-5705
▁የተባሉ	-5706
▁የንስሃ	-5707
▁የኢትዮ	-5708
▁የዚህን	-5709
▁የዛሬው	-5710
▁የጥላቻ	-5711
▁ያላትን	-5712
▁ያምራል	-5713
▁ያደረግ	-5714
▁ይሉታል	-5715
▁ይስጠን	-5716
▁ይቅርና	-5717
▁ደስታን	-5718
▁ድልድይ	-5719
▁ድርጊት	-5720
▁ጉብኝት	-5721
▁ጓደኞቼ	-5722
▁ጭፍጨፋ	-5723
▁ፍጥነት	-5724
▁ህዝባችን	-5725
▁ለመመለስ	-5726
▁ለመስጠት	-5727
▁ለመጠበቅ	-5728
▁ለማሸነፍ	-5729
▁ለትውልድ	-5730
▁ለእናንተ	-5731
▁መሆናቸው	-5732
▁መምህራን	-5733
▁መስፋፋት	-5734
▁መታሰቢያ	-5735
▁መንግስቱ	-5736
▁መገንባት	-5737
▁ማረጋገጫ	-5738
▁ማስከበር	-5739
▁ማስጠበቅ	-5740
▁ሰራተኞች	-5741
▁ቀጥሉበት	-5742
▁በርታልን	-5743
▁በአሜሪካ	-5744
▁በእውነቱ	-5745
▁በወቅታዊ	-5746
▁ተመልከት	-5747
▁ተመሰረተ	-5748
▁ተፎካካሪ	-5749
▁ታውቃለህ	-5750
▁ትግራዋይ	-5751
▁አርማጭሆ	-5752
▁አሰባሰብ	-5753
▁አስተዋይ	-5754
▁አባታችን	-5755
▁አውቃለሁ	-5756
▁አያውቅም	-5757
▁አይነቶች	-5758
▁አይገባም	-5759
▁አደረሰህ	-5760
▁አድራጎት	-5761
▁አጠቃላይ	-5762
▁ኢትዬጵያ	-5763
▁ኣይደለም	-5764
▁ኤርፖርት	-5765
▁እባካችሁ	-5766
▁እናንተም	-5767
▁እናንተን	-5768
▁እንቅልፍ	-5769
▁እንኩዋን	-5770
▁እንደምን	-5771
▁ወንድሞች	-5772
▁ዘረኝነት	-5773
▁የሌለበት	-5774
▁የሚመጣው	-5775
▁የሚሰጠው	-5776
▁የሚያምር	-5777
▁የሚያውቅ	-5778
▁የሚገኘው	-5779
▁የማድረግ	-5780
▁የምትባል	-5781
▁የሰብአዊ	-5782
▁የቀድሞው	-5783
▁የተቃውሞ	-5784
▁የተደረገ	-5785
▁የቴሌኮም	-5786
▁የትኛውን	-5787
▁የአሰራር	-5788
▁የወደፊቱ	-5789
▁የዜጎችን	-5790
▁የግንባታ	-5791
▁የጦርነት	-5792
▁የፈረንጅ	-5793
▁የፌስቡክ	-5794
▁ያደረገው	-5795
▁ይታወቃል	-5796
▁ይቻላል።	-5797
▁ይከብዳል	-5798
▁ይጠቅማል	-5799
▁ይጨምራል	-5800
▁ይፈልጋል	-5801
▁ለመወያየት	-5802
▁ምረበነልአ	-5803
▁በሃገራችን	-5804
▁በተመለከተ	-5805
▁በተደጋጋሚ	-5806
▁በትምህርት	-5807
▁ባለሙያዎች	-5808
▁ባለስልጣን	-5809
▁ተደራሽነት	-5810
▁አመለካከት	-5811
▁አስመልክቶ	-5812
▁አስተማማኝ	-5813
▁አክቲቪስት	-5814
▁አውሮፕላን	-5815
▁እንደሚገባ	-5816
▁እንዳለበት	-5817
▁እያንዳንዱ	-5818
▁ኦርቶዶክስ	-5819
▁ወንጀለኞች	-5820
▁የሚያሳየው	-5821
▁የሚያስችል	-5822
▁የበላይነት	-5823
▁የኢትዮጲያ	-5824
▁የዲሞክራሲ	-5825
▁የዲፕሎማሲ	-5826
▁ፕሬዝዳንት	-5827
▁አለመረጋጋት	-5828
▁አስተያየቶች	-5829
▁እናደርጋለን	-5830
▁የአነስተኛና	-5831
▁እግዚአብሄርን	-5832
▁ከእግዚአብሄር	-5833
▁የመጀመሪያውን	-5834
▁ዩኒቨርሲቲዎች	-5835
▁ኢንተርፕራይዞች	-5836
IP	-5837
LA	-5838
aw	-5839
ck	-5840
ea	-5841
he	-5842
im	-5843
ru	-5844
ሃር	-5845
ለፋ	-5846
ልት	-5847
መቅ	-5848
መታ	-5849
መኛ	-5850
መይ	-5851
ማሬ	-5852
ማሽ	-5853
ምጡ	-5854
ሟል	-5855
ረህ	-5856
ረሽ	-5857
ራች	-5858
ርሻ	-5859
ርጅ	-5860
ሯት	-5861
ሯን	-5862
ሰኞ	-5863
ሳም	-5864
ስኪ	-5865
ስጡ	-5866
ሻም	-5867
ሽር	-5868
ሾም	-5869
ቀላ	-5870
ቀመ	-5871
ቀባ	-5872
ቃሪ	-5873
ቄሮ	-5874
ቅራ	-5875
ቆሙ	-5876
ቆቃ	-5877
በቅ	-5878
ቡቲ	-5879
ቢው	-5880
ቢዶ	-5881
ባህ	-5882
ባቴ	-5883
ባና	-5884
ባጭ	-5885
ቤል	-5886
ቤሎ	-5887
ብም	-5888
ቨር	-5889
ተካ	-5890
ተዉ	-5891
ታለ	-5892
ታየ	-5893
ቺሁ	-5894
ነድ	-5895
ነፉ	-5896
ኑም	-5897
ኑኝ	-5898
ናቱ	-5899
ና፤	-5900
ንጤ	-5901
ን፣	-5902
ኝት	-5903
አበ	-5904
እይ	-5905
ከሞ	-5906
ከኝ	-5907
ካማ	-5908
ክኒ	-5909
ኳር	-5910
ወሩ	-5911
ወቁ	-5912
ወጫ	-5913
ዛሪ	-5914
ዜር	-5915
ይቅ	-5916
ይብ	-5917
ደቀ	-5918
ደይ	-5919
ደፍ	-5920
ዲሁ	-5921
ድህ	-5922
ድሪ	-5923
ዽያ	-5924
ገህ	-5925
ጋም	-5926
ጋብ	-5927
ግበ	-5928
ጎድ	-5929
ጠም	-5930
ጠቁ	-5931
ጠባ	-5932
ጥሬ	-5933
ጥቶ	-5934
ጨበ	-5935
ጫታ	-5936
ጭው	-5937
ጸጸ	-5938
ጻሜ	-5939
ፈሻ	-5940
ፈኑ	-5941
ፈፍ	-5942
ፊበ	-5943
ፋሽ	-5944
ፌል	-5945
ፍሪ	-5946
ፍሮ	-5947
ፍስ	-5948
ፍክ	-5949
▁j	-5950
▁ኝ	-5951
▁ጺ	-5952
▁፪	-5953
▁፫	-5954
▁፳	-5955
ass	-5956
ear	-5957
ers	-5958
ime	-5959
ost	-5960
ህዝብ	-5961
ሆናል	-5962
ለመደ	-5963
ለተኛ	-5964
ለዋል	-5965
ለውጥ	-5966
ሉም።	-5967
ሊዝም	-5968
ላሉ።	-5969
ላቀል	-5970
ላጆች	-5971
ልቱላ	-5972
ልኛል	-5973
ልኝ።	-5974
ሏቸው	-5975
መሰል	-5976
መታት	-5977
መጣው	-5978
ማለት	-5979
ምላክ	-5980
ሞክራ	-5981
ረናል	-5982
ረዳው	-5983
ረጋጋ	-5984
ሪያም	-5985
ሰለት	-5986
ሰማን	-5987
ሰባዊ	-5988
ሳለሁ	-5989
ስልክ	-5990
ስተኛ	-5991
ስተው	-5992
ሷል።	-5993
ሸናፊ	-5994
ቀሚያ	-5995
ቃቃት	-5996
ቅረቡ	-5997
ቆምም	-5998
በላሸ	-5999
በላው	-6000
በትና	-6001
በት፣	-6002
ቢያው	-6003
ቢዶሎ	-6004
ባሉት	-6005
ባባሪ	-6006
ባትህ	-6007
ብሎስ	-6008
ተኛና	-6009
ታውቅ	-6010
ቻለው	-6011
ችንም	-6012
ናነት	-6013
ናንት	-6014
ናውን	-6015
ናይት	-6016
ኖችን	-6017
ኛለሁ	-6018
ከፋፍ	-6019
ከፍል	-6020
ኩትን	-6021
ካኤል	-6022
ወድም	-6023
ዋለህ	-6024
ውሰድ	-6025
ውስጥ	-6026
ዎታል	-6027
ዘረፉ	-6028
ዚህም	-6029
ዝቃዜ	-6030
ያል።	-6031
ይይት	-6032
ዮኖች	-6033
ደርሱ	-6034
ደንት	-6035
ደኞች	-6036
ዴራል	-6037
ድረው	-6038
ድርሻ	-6039
ጅምላ	-6040
ገለጥ	-6041
ገለጽ	-6042
ገልገ	-6043
ገልጻ	-6044
ገሪቷ	-6045
ገነቡ	-6046
ግራኛ	-6047
ጠላት	-6048
ጠላው	-6049
ጠረው	-6050
ጣለን	-6051
ጨመር	-6052
ጨነቁ	-6053
ጨፈጨ	-6054
ጭቶች	-6055
ጻድቁ	-6056
ፈለጉ	-6057
ፈለግ	-6058
ፈርት	-6059
ፋለች	-6060
ፖርቱ	-6061
▁No	-6062
▁ex	-6063
▁it	-6064
▁sh	-6065
▁so	-6066
▁ሁነ	-6067
▁ሃያ	-6068
▁ለሠ	-6069
▁ለክ	-6070
▁ለየ	-6071
▁ለፋ	-6072
▁ላሉ	-6073
▁ላል	-6074
▁ሌብ	-6075
▁ልኡ	-6076
▁ልካ	-6077
▁መሥ	-6078
▁መዛ	-6079
▁መጫ	-6080
▁ማር	-6081
▁ማት	-6082
▁ማጥ	-6083
▁ሜት	-6084
▁ምሉ	-6085
▁ሞተ	-6086
▁ሥጋ	-6087
▁ሱሌ	-6088
▁ሲታ	-6089
▁ሳለ	-6090
▁ስጡ	-6091
▁ሸማ	-6092
▁ሹም	-6093
▁ሽር	-6094
▁ቀስ	-6095
▁ቆቦ	-6096
▁በሲ	-6097
▁በቸ	-6098
▁በዩ	-6099
▁በዲ	-6100
▁በጃ	-6101
▁በጸ	-6102
▁በጽ	-6103
▁ቡራ	-6104
▁ቡክ	-6105
▁ቤቲ	-6106
▁ቱን	-6107
▁ታገ	-6108
▁ታጥ	-6109
▁ቸር	-6110
▁ችሎ	-6111
▁ንት	-6112
▁አሞ	-6113
▁አሥ	-6114
▁አሮ	-6115
▁አእ	-6116
▁ኣስ	-6117
▁ኣያ	-6118
▁እላ	-6119
▁እሸ	-6120
▁እቅ	-6121
▁እቺ	-6122
▁ኦሮ	-6123
▁ከቅ	-6124
▁ከቦ	-6125
▁ከኣ	-6126
▁ከፊ	-6127
▁ክሊ	-6128
▁ክም	-6129
▁ኮሌ	-6130
▁ኮሜ	-6131
▁ኮር	-6132
▁ዘል	-6133
▁ዘግ	-6134
▁ዞሮ	-6135
▁የሻ	-6136
▁የቁ	-6137
▁የቱ	-6138
▁የዩ	-6139
▁ዩኒ	-6140
▁ያም	-6141
▁ያተ	-6142
▁ያኮ	-6143
▁ያዙ	-6144
▁ይላ	-6145
▁ይሠ	-6146
▁ይኑ	-6147
▁ደረ	-6148
▁ዱር	-6149
▁ዲሲ	-6150
▁ጀዝ	-6151
▁ጃን	-6152
▁ገራ	-6153
▁ግር	-6154
▁ግዛ	-6155
▁ግጥ	-6156
▁ጥሎ	-6157
▁ጭቃ	-6158
▁ፈት	-6159
▁ፋና	-6160
less	-6161
ሆንም።	-6162
ለች፡፡	-6163
ላቂነት	-6164
ላችኋል	-6165
ልቃይት	-6166
መሰገነ	-6167
ረጋገጠ	-6168
ቋቋሙት	-6169
ባበሩት	-6170
ባቸዋል	-6171
ባችንን	-6172
ብዛኛው	-6173
ተማመን	-6174
ተባበር	-6175
ቻለሁ።	-6176
ናገሩት	-6177
ወዳቸው	-6178
ይናንስ	-6179
ደርግም	-6180
ድርገው	-6181
ድሯል።	-6182
ጁንታው	-6183
ገልገል	-6184
ገልጋይ	-6185
ገባቸው	-6186
ጋንንት	-6187
ግራችሁ	-6188
ጠቅላይ	-6189
ፈጸመው	-6190
▁TDF	-6191
▁are	-6192
▁com	-6193
▁con	-6194
▁man	-6195
▁ሁለቱ	-6196
▁ሃውል	-6197
▁ሃይለ	-6198
▁ሃይሉ	-6199
▁ሃይሌ	-6200
▁ህዝቦ	-6201
▁ለህግ	-6202
▁ለሊት	-6203
▁ለሌላ	-6204
▁ለቅሶ	-6205
▁ለተጎ	-6206
▁ለቱሪ	-6207
▁ለእኛ	-6208
▁ለካስ	-6209
▁ላንቺ	-6210
▁ላይም	-6211
▁መነሻ	-6212
▁መደብ	-6213
▁መጅሊ	-6214
▁ሙዚቃ	-6215
▁ሚድያ	-6216
▁ማለቴ	-6217
▁ማሳያ	-6218
▁ማስፋ	-6219
▁ምሁር	-6220
▁ምልል	-6221
▁ምልክ	-6222
▁ምታት	-6223
▁ምነዉ	-6224
▁ምኑን	-6225
▁ራስን	-6226
▁ሰርቶ	-6227
▁ሰወች	-6228
▁ሰው።	-6229
▁ሱዳን	-6230
▁ሲሆኑ	-6231
▁ሲበዛ	-6232
▁ሳይነ	-6233
▁ስለሺ	-6234
▁ስምም	-6235
▁ስታወ	-6236
▁ቀንድ	-6237
▁ቀጣይ	-6238
▁ቁልፍ	-6239
▁ቃላት	-6240
▁ቅልጥ	-6241
▁ቅርሶ	-6242
▁ቅርብ	-6243
▁ቅድመ	-6244
▁በሁሉ	-6245
▁በለኝ	-6246
▁በመፍ	-6247
▁በምት	-6248
▁በረራ	-6249
▁በረከ	-6250
▁በቁሙ	-6251
▁በቤተ	-6252
▁በአው	-6253
▁በእብ	-6254
▁በእኔ	-6255
▁በእጅ	-6256
▁በውጪ	-6257
▁በደረ	-6258
▁በጌታ	-6259
▁በግል	-6260
▁በጤና	-6261
▁ባለጌ	-6262
▁ባላየ	-6263
▁ብላቹ	-6264
▁ብሩህ	-6265
▁ብርድ	-6266
▁ቦረና	-6267
▁ተስማ	-6268
▁ተሻሽ	-6269
▁ተቋማ	-6270
▁ተዋህ	-6271
▁ተጀም	-6272
▁ተገኘ	-6273
▁ተገድ	-6274
▁ተጠብ	-6275
▁ታንክ	-6276
▁ታዋቂ	-6277
▁ታይቶ	-6278
▁ትመስ	-6279
▁ትርጉ	-6280
▁ትውል	-6281
▁ትፊበ	-6282
▁ቻናል	-6283
▁ነበል	-6284
▁ነች።	-6285
▁አልክ	-6286
▁አርሶ	-6287
▁አሰራ	-6288
▁አስነ	-6289
▁አሸን	-6290
▁አቀማ	-6291
▁አበበ	-6292
▁አብራ	-6293
▁አብቹ	-6294
▁አብን	-6295
▁አታስ	-6296
▁አንት	-6297
▁አንች	-6298
▁አካፍ	-6299
▁አዋጁ	-6300
▁አውራ	-6301
▁አውር	-6302
▁አውቆ	-6303
▁አዘጋ	-6304
▁አይሰ	-6305
▁አይፈ	-6306
▁አገሬ	-6307
▁አጋር	-6308
▁አጠና	-6309
▁አጥፊ	-6310
▁ኣሁን	-6311
▁ኣንተ	-6312
▁ኣንድ	-6313
▁እርቅ	-6314
▁እናስ	-6315
▁እናተ	-6316
▁እኔማ	-6317
▁እኔስ	-6318
▁እኔና	-6319
▁እውቀ	-6320
▁እየቆ	-6321
▁እየዞ	-6322
▁እያል	-6323
▁እጁን	-6324
▁ከሆኑ	-6325
▁ከመቼ	-6326
▁ከሰማ	-6327
▁ከነማ	-6328
▁ከክፉ	-6329
▁ከፍታ	-6330
▁ከፍቶ	-6331
▁ካሁን	-6332
▁ካለች	-6333
▁ካለው	-6334
▁ካልክ	-6335
▁ክፍት	-6336
▁ወረራ	-6337
▁ወስዶ	-6338
▁ወዳድ	-6339
▁ዋዜማ	-6340
▁ውጊያ	-6341
▁ዘላቂ	-6342
▁ዙርያ	-6343
▁ዝግጁ	-6344
▁የልብ	-6345
▁የልጅ	-6346
▁የመር	-6347
▁የመነ	-6348
▁የሞተ	-6349
▁የራሱ	-6350
▁የበረ	-6351
▁የባሰ	-6352
▁የተን	-6353
▁የኖረ	-6354
▁የአጼ	-6355
▁የወረ	-6356
▁የወሰ	-6357
▁የደን	-6358
▁የድሃ	-6359
▁የገዛ	-6360
▁የገደ	-6361
▁የጌታ	-6362
▁ያለሁ	-6363
▁ያለመ	-6364
▁ያገኘ	-6365
▁ይበቃ	-6366
▁ይባር	-6367
▁ይኖረ	-6368
▁ይኖራ	-6369
▁ደጋግ	-6370
▁ዳይሬ	-6371
▁ገንዘ	-6372
▁ጉግሳ	-6373
▁ጊዜም	-6374
▁ጋዜጣ	-6375
▁ጌታን	-6376
▁ግሩም	-6377
▁ግዳን	-6378
▁ጠባብ	-6379
▁ጠንክ	-6380
▁ጠይቅ	-6381
▁ጥይት	-6382
▁ጥገኛ	-6383
▁ጫጫታ	-6384
▁ጭቆና	-6385
▁ጸበል	-6386
▁ጸጉር	-6387
▁ፋሲል	-6388
▁ፌዴራ	-6389
▁ፍላጎ	-6390
▁ፍራን	-6391
itter	-6392
ሃይማኖት	-6393
ህአዴግን	-6394
መለከተው	-6395
መቤታችን	-6396
ስክንድር	-6397
ተማሪዎች	-6398
▁Just	-6399
▁feel	-6400
▁that	-6401
▁this	-6402
▁your	-6403
▁ሁልጊዜ	-6404
▁ሃሳብን	-6405
▁ሃብታም	-6406
▁ህክምና	-6407
▁ለሌላው	-6408
▁ለመላው	-6409
▁ሊቀመን	-6410
▁ሊደረግ	-6411
▁ሌላውን	-6412
▁ልጆችን	-6413
▁መለኪያ	-6414
▁መምረጥ	-6415
▁መሰራት	-6416
▁መሰጠት	-6417
▁መስጂድ	-6418
▁መቀየር	-6419
▁መቃብር	-6420
▁መብላት	-6421
▁መብዛት	-6422
▁መንበር	-6423
▁መኖሪያ	-6424
▁መውጣት	-6425
▁መዳረሻ	-6426
▁መድረስ	-6427
▁መጅሊስ	-6428
▁መጠይቅ	-6429
▁ሚልዮን	-6430
▁ማህበረ	-6431
▁ማስጠን	-6432
▁ማንበብ	-6433
▁ምስራቅ	-6434
▁ሰውነት	-6435
▁ሰውየው	-6436
▁ሲቀጥል	-6437
▁ሲናገር	-6438
▁ሳይኖር	-6439
▁ስለሆኑ	-6440
▁ስላለው	-6441
▁ስማቸው	-6442
▁ስርአቱ	-6443
▁ስብሃት	-6444
▁ስትራቴ	-6445
▁ቅዝቃዜ	-6446
▁በሌሎች	-6447
▁በመረጃ	-6448
▁በመጽሃ	-6449
▁በምንም	-6450
▁በሠላም	-6451
▁በአልን	-6452
▁በአንተ	-6453
▁በአዲሱ	-6454
▁በአጭር	-6455
▁በእርስ	-6456
▁በእግር	-6457
▁በኦሮሞ	-6458
▁በክብር	-6459
▁በወቅቱ	-6460
▁በደህና	-6461
▁በደረሰ	-6462
▁በደብረ	-6463
▁ባህላዊ	-6464
▁ባሉበት	-6465
▁ቤተሰቦ	-6466
▁ብለሃል	-6467
▁ብቸኛው	-6468
▁ተብሏል	-6469
▁ተይዟል	-6470
▁ተገለጸ	-6471
▁ታግተው	-6472
▁ትራምፕ	-6473
▁ትርክት	-6474
▁ነገር።	-6475
▁አለብኝ	-6476
▁አለኝ።	-6477
▁አላለም	-6478
▁አቀንቃ	-6479
▁አንስቶ	-6480
▁አንዳች	-6481
▁አንጀት	-6482
▁አካሄድ	-6483
▁አዛውን	-6484
▁አድርጓ	-6485
▁አድናቆ	-6486
▁አገሮች	-6487
▁እመቤት	-6488
▁እምቡር	-6489
▁እርካታ	-6490
▁እርግጥ	-6491
▁እነሱም	-6492
▁እንደታ	-6493
▁እንደግ	-6494
▁እንዲሰ	-6495
▁እንጠይ	-6496
▁እንጸል	-6497
▁እውነቱ	-6498
▁እየተመ	-6499
▁እያለች	-6500
▁እያመጣ	-6501
▁እግዚኦ	-6502
▁ከማለት	-6503
▁ከቻልክ	-6504
▁ከወዲሁ	-6505
▁ክህደት	-6506
▁ክለቦች	-6507
▁ወንዶች	-6508
▁የመጣው	-6509
▁የሚረዳ	-6510
▁የሚኖር	-6511
▁የሚወሰ	-6512
▁የሚጠቅ	-6513
▁የምትሉ	-6514
▁የምትል	-6515
▁የምትመ	-6516
▁የሰውን	-6517
▁የሰጡት	-6518
▁የሽብር	-6519
▁የቁርጥ	-6520
▁የተማር	-6521
▁የተሰራ	-6522
▁የተቀና	-6523
▁የተባረ	-6524
▁የተከሰ	-6525
▁የታክስ	-6526
▁የአመቱ	-6527
▁የክልል	-6528
▁የወለጋ	-6529
▁የዘንድ	-6530
▁የጀግና	-6531
▁የፈረን	-6532
▁ያለብን	-6533
▁ያሳስበ	-6534
▁ያንተን	-6535
▁ያፈሰሱ	-6536
▁ይሆናል	-6537
▁ይሰጣል	-6538
▁ይባርክ	-6539
▁ይድረስ	-6540
▁ይጠፋል	-6541
▁ደሳለኝ	-6542
▁ድክመት	-6543
▁ድፍረት	-6544
▁ጀምሯል	-6545
▁ጠቅላላ	-6546
▁ጦርነቱ	-6547
▁ፈገግታ	-6548
▁ፍቅርን	-6549
▁ፓለቲካ	-6550
▁Amhar	-6551
▁ሆስፒታል	-6552
▁ለመስራት	-6553
▁ለመግባት	-6554
▁ለመግዛት	-6555
▁ለመፍታት	-6556
▁ለማውጣት	-6557
▁መሠረታዊ	-6558
▁መረጃዎች	-6559
▁መሰረታዊ	-6560
▁መስማማት	-6561
▁መስከረም	-6562
▁መነቃቃት	-6563
▁መከልከል	-6564
▁ማህበራዊ	-6565
▁ማስተማር	-6566
▁ማስተባበ	-6567
▁ምኒስትር	-6568
▁ምእራባዊ	-6569
▁በሃገሪቱ	-6570
▁በህክምና	-6571
▁በሌለበት	-6572
▁በመደገፍ	-6573
▁በመግደል	-6574
▁በሚገኘው	-6575
▁በሰላምና	-6576
▁በተለያየ	-6577
▁በተለይም	-6578
▁በነበረው	-6579
▁በአፍሪካ	-6580
▁በኢኮኖሚ	-6581
▁በከፍተኛ	-6582
▁ብለዋል።	-6583
▁ተመስገን	-6584
▁ቴሌቪዥን	-6585
▁ቴክኖሎጂ	-6586
▁ትግራይን	-6587
▁አልነበር	-6588
▁አማራጮች	-6589
▁አማኑኤል	-6590
▁አምራቾች	-6591
▁አንችልም	-6592
▁አከባበር	-6593
▁አይነቱን	-6594
▁አይደለች	-6595
▁ኤርሚያስ	-6596
▁እስትንፋ	-6597
▁እንስሳት	-6598
▁እንደሆን	-6599
▁እንደርታ	-6600
▁እንዲገባ	-6601
▁እጃቸውን	-6602
▁ከትግራይ	-6603
▁ከእውቀት	-6604
▁ከድህነት	-6605
▁ውስብስብ	-6606
▁የህውሃት	-6607
▁የመኖሪያ	-6608
▁የሚገባው	-6609
▁የተለያየ	-6610
▁የተሳሳተ	-6611
▁የተከበሩ	-6612
▁የተወሰኑ	-6613
▁የተፈጸመ	-6614
▁የቱሪስት	-6615
▁የንጹሃን	-6616
▁የኤርትራ	-6617
▁የእምነት	-6618
▁የእንኳን	-6619
▁የኦሮሚያ	-6620
▁የኦሮሞን	-6621
▁የክልሉን	-6622
▁የወላይታ	-6623
▁የወደፊት	-6624
▁የገንዘብ	-6625
▁የፌደራል	-6626
▁የፓለቲካ	-6627
▁ያለባቸው	-6628
▁ይሁንልን	-6629
▁ይህንንም	-6630
▁ይመልከቱ	-6631
▁ይቀጥላል	-6632
▁ይበልጣል	-6633
▁ይባላል።	-6634
▁ይናገራል	-6635
▁ይጠብቃሉ	-6636
▁ይጠብቃል	-6637
▁ድንቁርና	-6638
▁ግብአቶች	-6639
▁ፖለቲካዊ	-6640
▁ሃይለስላሴ	-6641
▁ለመጀመሪያ	-6642
▁ለማጠናከር	-6643
▁ለዘለአለም	-6644
▁መንግስትን	-6645
▁ማስተዳደር	-6646
▁በመንግሥት	-6647
▁በባህርዳር	-6648
▁በተጨማሪም	-6649
▁በዘላቂነት	-6650
▁በየትኛውም	-6651
▁አላውቅም።	-6652
▁አሳድሯል።	-6653
▁አሸባሪዎች	-6654
▁አይወክልም	-6655
▁ኢንዱስትሪ	-6656
▁እንችላለን	-6657
▁እንደሌለው	-6658
▁እንደሚሆን	-6659
▁ከሁለታችን	-6660
▁ክርስቶስን	-6661
▁ኮሙኒኬሽን	-6662
▁የሃገሪቱን	-6663
▁የሃገራችን	-6664
▁የህወሃትን	-6665
▁የሚቃወሙት	-6666
▁የማይችሉት	-6667
▁የራሳቸውን	-6668
▁የተናገሩት	-6669
▁የተፈጠረው	-6670
▁የነበረውን	-6671
▁የእስልምና	-6672
▁የወጣቶችን	-6673
▁ያደርጋል።	-6674
▁ያድርግልን	-6675
▁ይሰማቸዋል	-6676
▁ይጀምራል።	-6677
▁ፕሮፓጋንዳ	-6678
▁Twitter	-6679
▁አደረሳችሁ።	-6680
▁ኤርትራውያን	-6681
▁እንጠብቃለን	-6682
▁ይመስለኛል።	-6683
▁ተክለሃይማኖት	-6684
▁ኢንቨስትመንት	-6685
NG	-6686
eg	-6687
ie	-6688
la	-6689
lo	-6690
ni	-6691
nt	-6692
pl	-6693
pt	-6694
ry	-6695
se	-6696
tu	-6697
ሁሉ	-6698
ሂም	-6699
ሃድ	-6700
ሄም	-6701
ሆኔ	-6702
ለቃ	-6703
ሉ፤	-6704
ሊጥ	-6705
ላሙ	-6706
ላኑ	-6707
ላጭ	-6708
ልሎ	-6709
ልበ	-6710
ልፉ	-6711
መተ	-6712
መከ	-6713
መዝ	-6714
ሙዝ	-6715
ሚው	-6716
ማሌ	-6717
ማኒ	-6718
ማጅ	-6719
ምሰ	-6720
ምኑ	-6721
ምክ	-6722
ሞቱ	-6723
ሞካ	-6724
ሟላ	-6725
ሟት	-6726
ሟን	-6727
ሠብ	-6728
ሣት	-6729
ረሙ	-6730
ረጎ	-6731
ራኑ	-6732
ሮና	-6733
ሯሯ	-6734
ሰረ	-6735
ሰቀ	-6736
ሰፋ	-6737
ሱ።	-6738
ሳር	-6739
ሳሽ	-6740
ሳቤ	-6741
ሳና	-6742
ሳኤ	-6743
ሳፍ	-6744
ስስ	-6745
ስቴ	-6746
ሶት	-6747
ሸለ	-6748
ሹት	-6749
ሽቶ	-6750
ሽግ	-6751
ሽ።	-6752
ቀራ	-6753
ቀብ	-6754
ቀች	-6755
ቁሞ	-6756
ቁብ	-6757
ቂጤ	-6758
ቃር	-6759
ቃሽ	-6760
ቆል	-6761
በአ	-6762
በዝ	-6763
በጅ	-6764
በጣ	-6765
ቡና	-6766
ቢሲ	-6767
ቢኔ	-6768
ባላ	-6769
ባራ	-6770
ብሃ	-6771
ብጦ	-6772
ቦተ	-6773
ቧን	-6774
ተቱ	-6775
ተኝ	-6776
ተክ	-6777
ቱሳ	-6778
ቶን	-6779
ቸት	-6780
ቻው	-6781
ኋበ	-6782
ነበ	-6783
ነይ	-6784
ኑ፣	-6785
ናድ	-6786
ናፍ	-6787
ንካ	-6788
ንዱ	-6789
ንፊ	-6790
ኖክ	-6791
ኗል	-6792
ኘው	-6793
ኣን	-6794
ከሉ	-6795
ኩላ	-6796
ኩሽ	-6797
ኩ።	-6798
ካኔ	-6799
ክሉ	-6800
ክቱ	-6801
ኮሳ	-6802
ኳስ	-6803
ኸኝ	-6804
ኾነ	-6805
ወተ	-6806
ወጠ	-6807
ዊው	-6808
ዋሎ	-6809
ዋች	-6810
ዋወ	-6811
ውር	-6812
ዘበ	-6813
ዘኛ	-6814
ዘዋ	-6815
ዛብ	-6816
ዝህ	-6817
ዝኖ	-6818
የል	-6819
የሱ	-6820
የሽ	-6821
የተ	-6822
የቱ	-6823
ያያ	-6824
ዬ።	-6825
ይዙ	-6826
ይጣ	-6827
ደመ	-6828
ደና	-6829
ደዱ	-6830
ዲፒ	-6831
ዳቤ	-6832
ዳች	-6833
ዳፊ	-6834
ዴል	-6835
ዴይ	-6836
ድሎ	-6837
ድሜ	-6838
ድራ	-6839
ዷል	-6840
ጅዬ	-6841
ገች	-6842
ገዱ	-6843
ገጤ	-6844
ጉል	-6845
ጉዋ	-6846
ጉ።	-6847
ጋቢ	-6848
ጋቱ	-6849
ጋገ	-6850
ጋጭ	-6851
ጎን	-6852
ጠሉ	-6853
ጣራ	-6854
ጤን	-6855
ጦት	-6856
ጧል	-6857
ጨብ	-6858
ጨና	-6859
ጨው	-6860
ጮህ	-6861
ጸና	-6862
ጹእ	-6863
ጽፉ	-6864
ፍፍ	-6865
ፕል	-6866
፣ከ	-6867
▁U	-6868
▁o	-6869
▁ኸ	-6870
▁ኹ	-6871
▁ዌ	-6872
▁ዠ	-6873
▁ዪ	-6874
▁ጏ	-6875
▁፮	-6876
ame	-6877
ary	-6878
ase	-6879
ast	-6880
ect	-6881
eet	-6882
est	-6883
ham	-6884
ice	-6885
ind	-6886
ive	-6887
ppy	-6888
ሃቸው	-6889
ሄድም	-6890
ሄድን	-6891
ህተት	-6892
ሆነም	-6893
ለህ።	-6894
ለቅስ	-6895
ለትም	-6896
ለውም	-6897
ለያይ	-6898
ለድክ	-6899
ለጠነ	-6900
ሉትን	-6901
ሉ፡፡	-6902
ላለፈ	-6903
ላቀሉ	-6904
ልሄም	-6905
ልህ።	-6906
ልናል	-6907
ልውና	-6908
ልግና	-6909
ልፈው	-6910
መችም	-6911
መናል	-6912
መናን	-6913
መናዊ	-6914
መጣል	-6915
ማዎች	-6916
ምረጥ	-6917
ምሰል	-6918
ምንጭ	-6919
ረመኝ	-6920
ረምት	-6921
ረሰብ	-6922
ራልን	-6923
ራፌል	-6924
ርበነ	-6925
ርቲው	-6926
ሮቹን	-6927
ሰቃዩ	-6928
ሳየን	-6929
ሳፈር	-6930
ስራት	-6931
ስተን	-6932
ስታዊ	-6933
ስፋፋ	-6934
ሸነፈ	-6935
ሻቸው	-6936
ቀረበ	-6937
ቀርም	-6938
ቀቂያ	-6939
ቀውም	-6940
ቀውን	-6941
ቃቅን	-6942
ቅም።	-6943
በለጸ	-6944
ቡትን	-6945
ቢዎች	-6946
ባል።	-6947
ባራዊ	-6948
ባትን	-6949
ቤትህ	-6950
ብሃል	-6951
ብህም	-6952
ብሮት	-6953
ቧል።	-6954
ተላይ	-6955
ተርፍ	-6956
ተነው	-6957
ታገል	-6958
ቶቹን	-6959
ቶችና	-6960
ቶችዎ	-6961
ቷቸው	-6962
ቸገር	-6963
ችሁ።	-6964
ችሉም	-6965
ችልን	-6966
ነሱት	-6967
ነትም	-6968
ነኛው	-6969
ኑንም	-6970
ናልፍ	-6971
ንታው	-6972
ንትሮ	-6973
ንደሩ	-6974
ንጹህ	-6975
ኖሩት	-6976
ኛዉም	-6977
ኝም።	-6978
ኞችና	-6979
ኞደጓ	-6980
አደራ	-6981
ከለኛ	-6982
ከላዊ	-6983
ከባሪ	-6984
ከናወ	-6985
ከፈል	-6986
ከፋፈ	-6987
ካችሁ	-6988
ክልና	-6989
ክበር	-6990
ወሰደ	-6991
ወደው	-6992
ዝናኛ	-6993
የነው	-6994
ይህን	-6995
ይሆን	-6996
ደለው	-6997
ደረው	-6998
ደበቅ	-6999
ደበት	-7000
ደቢት	-7001
ዳርጋ	-7002
ዳንዱ	-7003
ድርና	-7004
ድርጊ	-7005
ድነቅ	-7006
ድንወ	-7007
ድዋን	-7008
ዶችና	-7009
ዶነት	-7010
ጀመሩ	-7011
ጀንሲ	-7012
ገለል	-7013
ገቱት	-7014
ገኘም	-7015
ገኙም	-7016
ጋቾቹ	-7017
ግልኝ	-7018
ግባብ	-7019
ጠፋው	-7020
ጣመይ	-7021
ጣናዊ	-7022
ጨመረ	-7023
ጫወተ	-7024
ጫወቱ	-7025
ጸድቅ	-7026
ጻጻፍ	-7027
ጻፈው	-7028
ጽህና	-7029
ጽዋት	-7030
ፈራው	-7031
ፈታት	-7032
ፉትን	-7033
ፋለን	-7034
ፋችሁ	-7035
▁Af	-7036
▁DM	-7037
▁ht	-7038
▁ሃር	-7039
▁ሃአ	-7040
▁ለቃ	-7041
▁ለዚ	-7042
▁ለጌ	-7043
▁ለጸ	-7044
▁ሊመ	-7045
▁ላስ	-7046
▁ሌሊ	-7047
▁ሌሎ	-7048
▁ልሂ	-7049
▁ሎሚ	-7050
▁ማላ	-7051
▁ማማ	-7052
▁ማም	-7053
▁ማራ	-7054
▁ማቴ	-7055
▁ማካ	-7056
▁ማወ	-7057
▁ማያ	-7058
▁ማጣ	-7059
▁ምታ	-7060
▁ሞቅ	-7061
▁ሞክ	-7062
▁ረድ	-7063
▁ሰቅ	-7064
▁ሱቅ	-7065
▁ስድ	-7066
▁ቄስ	-7067
▁ቅማ	-7068
▁በሆ	-7069
▁በሥ	-7070
▁በሸ	-7071
▁በሺ	-7072
▁በቶ	-7073
▁በኔ	-7074
▁በካ	-7075
▁በዉ	-7076
▁በያ	-7077
▁በዶ	-7078
▁በጫ	-7079
▁ቢታ	-7080
▁ቢኒ	-7081
▁ባስ	-7082
▁ቤን	-7083
▁ብሮ	-7084
▁ብና	-7085
▁ብዛ	-7086
▁ተም	-7087
▁ተች	-7088
▁ተካ	-7089
▁ተክ	-7090
▁ተግ	-7091
▁ተጣ	-7092
▁ተጫ	-7093
▁ተጭ	-7094
▁ተፈ	-7095
▁ታዬ	-7096
▁ቴዎ	-7097
▁ትቶ	-7098
▁ነካ	-7099
▁ኒው	-7100
▁ናእ	-7101
▁ንኛ	-7102
▁ኖረ	-7103
▁አጃ	-7104
▁አጌ	-7105
▁ኡማ	-7106
▁ኡኡ	-7107
▁ኣል	-7108
▁ኣት	-7109
▁እሴ	-7110
▁እኒ	-7111
▁እጁ	-7112
▁እፎ	-7113
▁ከሳ	-7114
▁ከቶ	-7115
▁ከች	-7116
▁ከጠ	-7117
▁ከፌ	-7118
▁ካሊ	-7119
▁ወኪ	-7120
▁ወዮ	-7121
▁ዋሉ	-7122
▁ውሎ	-7123
▁ውበ	-7124
▁ውጣ	-7125
▁ዘማ	-7126
▁ዘይ	-7127
▁ዙር	-7128
▁ዜሮ	-7129
▁ዝና	-7130
▁የቤ	-7131
▁የየ	-7132
▁የጦ	-7133
▁የፋ	-7134
▁የፖ	-7135
▁ያበ	-7136
▁ይደ	-7137
▁ይጮ	-7138
▁ደፋ	-7139
▁ድህ	-7140
▁ጀባ	-7141
▁ጃል	-7142
▁ጅል	-7143
▁ገም	-7144
▁ገዢ	-7145
▁ጋላ	-7146
▁ጋራ	-7147
▁ግሽ	-7148
▁ግፈ	-7149
▁ጠል	-7150
▁ጡት	-7151
▁ጥረ	-7152
▁ጥቅ	-7153
▁ጥብ	-7154
▁ጨው	-7155
▁ጫካ	-7156
▁ጳጳ	-7157
▁ጻድ	-7158
▁ፈለ	-7159
▁ፈቃ	-7160
▁ፈታ	-7161
▁ፌክ	-7162
▁ፍራ	-7163
▁ፍቃ	-7164
▁ፓር	-7165
▁ፓስ	-7166
ound	-7167
read	-7168
ላቸውም	-7169
ልጣኞች	-7170
መልከት	-7171
መንገድ	-7172
ማኖታዊ	-7173
ምምነት	-7174
ምንታት	-7175
ረኝነት	-7176
ረዋል።	-7177
ረጋግጥ	-7178
ሪምየር	-7179
ርማጭሆ	-7180
ርሰናል	-7181
ሮፕላኑ	-7182
ሰማበት	-7183
ሰቃየት	-7184
ሰባችን	-7185
ሰጠም።	-7186
ስራኤል	-7187
ቅድስት	-7188
በለዚያ	-7189
በረከት	-7190
ባልነት	-7191
ባብረን	-7192
ብራሂም	-7193
ብቃመበ	-7194
ብዛልን	-7195
ቫይረስ	-7196
ተኞችን	-7197
ታል፡፡	-7198
ታማነት	-7199
ትህነግ	-7200
ቶችዎን	-7201
ቻችሁን	-7202
ችኋለሁ	-7203
ናይትድ	-7204
ንደዚህ	-7205
ንድምህ	-7206
ንግረስ	-7207
ኛል፡፡	-7208
ክብሮት	-7209
ወሃቶች	-7210
ውቃለን	-7211
ውነተኛ	-7212
ያችንን	-7213
ደርገው	-7214
ደዋል።	-7215
ዳንኤል	-7216
ገልበጥ	-7217
ገባበት	-7218
ጋዜጠኛ	-7219
ጠራል።	-7220
ጠበቀው	-7221
ጨፈጨፈ	-7222
ፈታቸው	-7223
ፋታቸው	-7224
▁Wor	-7225
▁ሁሴን	-7226
▁ሂደቱ	-7227
▁ሃረር	-7228
▁ሃገሩ	-7229
▁ሃጢያ	-7230
▁ሄኖክ	-7231
▁ሄደው	-7232
▁ህዝቤ	-7233
▁ህዳሴ	-7234
▁ለሆዱ	-7235
▁ለመለ	-7236
▁ለሙሉ	-7237
▁ለማጣ	-7238
▁ለሰራ	-7239
▁ለቤት	-7240
▁ለእና	-7241
▁ለወሎ	-7242
▁ሊሰጡ	-7243
▁ላለማ	-7244
▁ላለው	-7245
▁ላሉት	-7246
▁ላኋበ	-7247
▁ሌቦች	-7248
▁ልማድ	-7249
▁ልቦና	-7250
▁መልሱ	-7251
▁መምጣ	-7252
▁መሰል	-7253
▁መስህ	-7254
▁መስጊ	-7255
▁መስጠ	-7256
▁መሸጥ	-7257
▁መቀለ	-7258
▁መቅረ	-7259
▁መቆም	-7260
▁መቐለ	-7261
▁መንቀ	-7262
▁መጠራ	-7263
▁መጥቶ	-7264
▁መጽሃ	-7265
▁መጽና	-7266
▁ሙስና	-7267
▁ማረም	-7268
▁ማቆም	-7269
▁ማክሮ	-7270
▁ማግኘ	-7271
▁ሞልቶ	-7272
▁ሞዴል	-7273
▁ሦስት	-7274
▁ረስተ	-7275
▁ሪፖር	-7276
▁ራሴን	-7277
▁ራእይ	-7278
▁ርካሽ	-7279
▁ርገነ	-7280
▁ሰበብ	-7281
▁ሰነፍ	-7282
▁ሲሰራ	-7283
▁ሲነሳ	-7284
▁ሲያቅ	-7285
▁ሲዳማ	-7286
▁ሲፈታ	-7287
▁ሳይታ	-7288
▁ስልህ	-7289
▁ስልቻ	-7290
▁ስልኬ	-7291
▁ስምህ	-7292
▁ስያሜ	-7293
▁ስደት	-7294
▁ስጠኝ	-7295
▁ሽንት	-7296
▁ቀረጻ	-7297
▁ቀኑን	-7298
▁ቀደም	-7299
▁ቁማር	-7300
▁ቅጠል	-7301
▁በህገ	-7302
▁በሆኑ	-7303
▁በሗላ	-7304
▁በሚሊ	-7305
▁በማሳ	-7306
▁በረሃ	-7307
▁በረዶ	-7308
▁በሳቅ	-7309
▁በስን	-7310
▁በቁር	-7311
▁በቃል	-7312
▁በቅን	-7313
▁በአሉ	-7314
▁በአማ	-7315
▁በእነ	-7316
▁በእኛ	-7317
▁በክፉ	-7318
▁በወረ	-7319
▁በደል	-7320
▁ቢሆኑ	-7321
▁ባለሥ	-7322
▁ባለፈ	-7323
▁ባሪያ	-7324
▁ባንድ	-7325
▁ብልጥ	-7326
▁ብዙም	-7327
▁ብዙው	-7328
▁ቪድዮ	-7329
▁ተለይ	-7330
▁ተመስ	-7331
▁ተማር	-7332
▁ተሰማ	-7333
▁ተሾመ	-7334
▁ተነጋ	-7335
▁ተወዳ	-7336
▁ተያይ	-7337
▁ተገኔ	-7338
▁ተጠቂ	-7339
▁ታሪፍ	-7340
▁ታቦተ	-7341
▁ታደሰ	-7342
▁ታጋች	-7343
▁ትሁን	-7344
▁ትቀጥ	-7345
▁ትተው	-7346
▁ትነግ	-7347
▁ችግራ	-7348
▁ችግኝ	-7349
▁ነሽ።	-7350
▁ነበሩ	-7351
▁ነብሰ	-7352
▁ነገስ	-7353
▁ንጹሃ	-7354
▁አለቅ	-7355
▁አልታ	-7356
▁አማን	-7357
▁አርብ	-7358
▁አስራ	-7359
▁አስር	-7360
▁አስታ	-7361
▁አቋር	-7362
▁አበር	-7363
▁አባይ	-7364
▁አትን	-7365
▁አትድ	-7366
▁አንዷ	-7367
▁አእላ	-7368
▁አውቶ	-7369
▁አውድ	-7370
▁አይለ	-7371
▁አይሞ	-7372
▁አድሎ	-7373
▁አጋን	-7374
▁አጥፍ	-7375
▁አፍሮ	-7376
▁ኢራቅ	-7377
▁ኢብሳ	-7378
▁ኢንጂ	-7379
▁ኣብይ	-7380
▁እሄን	-7381
▁እህል	-7382
▁እልፍ	-7383
▁እሚያ	-7384
▁እርሶ	-7385
▁እርኩ	-7386
▁እሰይ	-7387
▁እበላ	-7388
▁እናሳ	-7389
▁እናው	-7390
▁እንዘ	-7391
▁እንጃ	-7392
▁እደው	-7393
▁እድር	-7394
▁ከሃይ	-7395
▁ከሌለ	-7396
▁ከማህ	-7397
▁ከሞተ	-7398
▁ከቤተ	-7399
▁ከቤቱ	-7400
▁ከብዙ	-7401
▁ከኋላ	-7402
▁ከነሱ	-7403
▁ከነገ	-7404
▁ከዛሬ	-7405
▁ከግራ	-7406
▁ከፊት	-7407
▁ካለህ	-7408
▁ካምፕ	-7409
▁ወላጆ	-7410
▁ወርቁ	-7411
▁ወደሚ	-7412
▁ወድቆ	-7413
▁ዋነኛ	-7414
▁ውሸታ	-7415
▁ውቸና	-7416
▁ዘለቀ	-7417
▁ዘመኑ	-7418
▁ዘረፋ	-7419
▁ዘይት	-7420
▁ዘግቶ	-7421
▁ዘጠኝ	-7422
▁ዘፋኝ	-7423
▁ዥልጥ	-7424
▁የለሽ	-7425
▁የለኝ	-7426
▁የላከ	-7427
▁የመቀ	-7428
▁የሚች	-7429
▁የሚነ	-7430
▁የሚዘ	-7431
▁የሚጨ	-7432
▁የሴት	-7433
▁የብዙ	-7434
▁የተሻ	-7435
▁የተዋ	-7436
▁የተዘ	-7437
▁የነጻ	-7438
▁የናፈ	-7439
▁የኔን	-7440
▁የእር	-7441
▁የእጅ	-7442
▁የድል	-7443
▁የገቢ	-7444
▁የጎን	-7445
▁ያልታ	-7446
▁ያልክ	-7447
▁ያሸን	-7448
▁ያቃጠ	-7449
▁ያቤሎ	-7450
▁ያካተ	-7451
▁ያደር	-7452
▁ያገሬ	-7453
▁ያገባ	-7454
▁ይመለ	-7455
▁ይመራ	-7456
▁ይሰቃ	-7457
▁ይሻለ	-7458
▁ይጀም	-7459
▁ይፈስ	-7460
▁ዮናስ	-7461
▁ደህን	-7462
▁ደማቅ	-7463
▁ደረሰ	-7464
▁ደረቅ	-7465
▁ደካማ	-7466
▁ዳርቻ	-7467
▁ዳዊት	-7468
▁ዳውድ	-7469
▁ዳግማ	-7470
▁ድርቅ	-7471
▁ድርድ	-7472
▁ድጋሚ	-7473
▁ጀዝባ	-7474
▁ገርባ	-7475
▁ገደብ	-7476
▁ጉሙዝ	-7477
▁ጉዳዩ	-7478
▁ግማሽ	-7479
▁ጥርት	-7480
▁ጴንጤ	-7481
▁ጻድቅ	-7482
▁ጽዳት	-7483
▁ፈጽሞ	-7484
▁ፊልም	-7485
▁ፋሽን	-7486
▁ፍጻሜ	-7487
▁ፓርት	-7488
▁ፓርክ	-7489
人人人人	-7490
መንግሥት	-7491
ሰባሰቢያ	-7492
ሽከርካሪ	-7493
ቀርብበት	-7494
ቶቻችንን	-7495
ዎቻችንን	-7496
ደረገውን	-7497
ደርገውን	-7498
ዳዳሪዎች	-7499
ጭበርባሪ	-7500
ፈልገውን	-7501
▁What	-7502
▁ሁኔታው	-7503
▁ህይዎት	-7504
▁ህግደፍ	-7505
▁ለለውጥ	-7506
▁ለልማት	-7507
▁ለማወቅ	-7508
▁ለማየት	-7509
▁ለበአል	-7510
▁ለአዲስ	-7511
▁ሊንኩን	-7512
▁ልያታይ	-7513
▁ልጣመይ	-7514
▁መሆኔን	-7515
▁መለወጫ	-7516
▁መልአክ	-7517
▁መልክት	-7518
▁መሥራት	-7519
▁መሰረቱ	-7520
▁መስጅድ	-7521
▁መሸነፍ	-7522
▁መቀነስ	-7523
▁መብትን	-7524
▁መብቶች	-7525
▁መታየት	-7526
▁መከላከ	-7527
▁መክፈል	-7528
▁መዝናኛ	-7529
▁መገኘት	-7530
▁መግባት	-7531
▁መጨመሩ	-7532
▁ሚስጥር	-7533
▁ሚካኤል	-7534
▁ማለትም	-7535
▁ማክሰኞ	-7536
▁ማክበር	-7537
▁ማፍረስ	-7538
▁ምልልስ	-7539
▁ምንዛሪ	-7540
▁ምድንወ	-7541
▁ሞክረው	-7542
▁ሥራዎች	-7543
▁ሬድዋን	-7544
▁ሰርቪስ	-7545
▁ሰንበት	-7546
▁ሰውዬው	-7547
▁ሱራፌል	-7548
▁ሲሞክር	-7549
▁ሳሙኤል	-7550
▁ሳተላይ	-7551
▁ሳትሆን	-7552
▁ሴቶችን	-7553
▁ስለሌለ	-7554
▁ስለምን	-7555
▁ስልጣኔ	-7556
▁ስራውን	-7557
▁ስትሆን	-7558
▁ስንቱን	-7559
▁ቀልደኛ	-7560
▁ቀድመው	-7561
▁ቀጥተኛ	-7562
▁ቅስቀሳ	-7563
▁በሚገባ	-7564
▁በማሰብ	-7565
▁በረሃብ	-7566
▁በቀስታ	-7567
▁በብቃት	-7568
▁በተለየ	-7569
▁በነበረ	-7570
▁በነበር	-7571
▁በአመት	-7572
▁በአየር	-7573
▁በእርሱ	-7574
▁በክልሉ	-7575
▁በክልል	-7576
▁በወለጋ	-7577
▁በዚያን	-7578
▁በደሎች	-7579
▁በጅምላ	-7580
▁በገሃነ	-7581
▁በግንባ	-7582
▁በፈጣሪ	-7583
▁ቢሊየን	-7584
▁ባህርይ	-7585
▁ባላቸው	-7586
▁ተቆራጭ	-7587
▁ተነስቶ	-7588
▁ተናጋሪ	-7589
▁ተአምር	-7590
▁ተከታት	-7591
▁ተወካይ	-7592
▁ተወዳጅ	-7593
▁ተደርጓ	-7594
▁ተፈጸመ	-7595
▁ቱልቱላ	-7596
▁ትውስታ	-7597
▁ትያለሽ	-7598
▁ችግርን	-7599
▁ነበር፣	-7600
▁ነበር፤	-7601
▁ነባራዊ	-7602
▁ነገሩን	-7603
▁አሁንስ	-7604
▁አለች።	-7605
▁አላየሁ	-7606
▁አልቀረ	-7607
▁አማረኛ	-7608
▁አምላኬ	-7609
▁አሰራሩ	-7610
▁አስመጪ	-7611
▁አስቂኝ	-7612
▁አስተካ	-7613
▁አቢይን	-7614
▁አባባል	-7615
▁አብይና	-7616
▁አንተና	-7617
▁አንትሽ	-7618
▁አንቺን	-7619
▁አይሙት	-7620
▁አይቀሬ	-7621
▁አይኖር	-7622
▁አይዞሽ	-7623
▁አይይይ	-7624
▁አዲስና	-7625
▁አድርጉ	-7626
▁አገሪቱ	-7627
▁አገራት	-7628
▁አገርን	-7629
▁ኣብጸሃ	-7630
▁ኤልያስ	-7631
▁እላለሁ	-7632
▁እራስን	-7633
▁እርሱም	-7634
▁እባካቹ	-7635
▁እነሆ፥	-7636
▁እኔንም	-7637
▁እንካን	-7638
▁እንደዘ	-7639
▁እንዳላ	-7640
▁እንድታ	-7641
▁እንግዲ	-7642
▁እንጨት	-7643
▁እየሰጠ	-7644
▁እየተወ	-7645
▁እየደገ	-7646
▁እየፈተ	-7647
▁እጃቸው	-7648
▁እጠብቃ	-7649
▁ከሚገኙ	-7650
▁ከበቡሽ	-7651
▁ከተባለ	-7652
▁ከአሁን	-7653
▁ከጀርባ	-7654
▁ከግብጽ	-7655
▁ከፈጣሪ	-7656
▁ኩርበነ	-7657
▁ካላቸው	-7658
▁ኬላዎች	-7659
▁ክብርና	-7660
▁ክትክታ	-7661
▁ወልቂጤ	-7662
▁ወንድሙ	-7663
▁ወይንም	-7664
▁ውርደት	-7665
▁ውይይቱ	-7666
▁የለንም	-7667
▁የለኝም	-7668
▁የለዉም	-7669
▁የሙዚቃ	-7670
▁የሚሆነ	-7671
▁የሚቆጣ	-7672
▁የሚወድ	-7673
▁የማይል	-7674
▁የምለው	-7675
▁የምትለ	-7676
▁የምወድ	-7677
▁የምድር	-7678
▁የሞራል	-7679
▁የሰሞኑ	-7680
▁የሸገር	-7681
▁የቡድን	-7682
▁የተላከ	-7683
▁የተደበ	-7684
▁የተገኘ	-7685
▁የታየው	-7686
▁	-7687
ን	-7688
ት	-7689
የ	-7690
አ	-7691
ል	-7692
ለ	-7693
ም	-7694
ር	-7695
በ	-7696
መ	-7697
ው	-7698
ስ	-7699
እ	-7700
ይ	-7701
ያ	-7702
ተ	-7703
ነ	-7704
ብ	-7705
ማ	-7706
ች	-7707
ገ	-7708
ደ	-7709
ህ	-7710
ራ	-7711
ና	-7712
ግ	-7713
ከ	-7714
ረ	-7715
ድ	-7716
ላ	-7717
ታ	-7718
ሰ	-7719
ባ	-7720
ወ	-7721
ክ	-7722
ሚ	-7723
ቀ	-7724
ጥ	-7725
ቅ	-7726
።	-7727
ጠ	-7728
ሳ	-7729
ሃ	-7730
ፍ	-7731
ሁ	-7732
ዳ	-7733
ካ	-7734
ፈ	-7735
ሆ	-7736
ሪ	-7737
ጣ	-7738
ጋ	-7739
ኛ	-7740
ዝ	-7741
ዋ	-7742
ሉ	-7743
ቸ	-7744
ኢ	-7745
ዘ	-7746
ዲ	-7747
ቃ	-7748
ኝ	-7749
ሮ	-7750
ዎ	-7751
ሽ	-7752
ቱ	-7753
ዮ	-7754
ሩ	-7755
ቶ	-7756
ሲ	-7757
፣	-7758
ሞ	-7759
ሊ	-7760
፡	-7761
ኔ	-7762
ፋ	-7763
ሎ	-7764
ሱ	-7765
ሄ	-7766
ቢ	-7767
ኖ	-7768
ጉ	-7769
ጀ	-7770
ጅ	-7771
ዊ	-7772
ሌ	-7773
ጽ	-7774
ጵ	-7775
ቲ	-7776
ኮ	-7777
ቤ	-7778
ሙ	-7779
ኑ	-7780
ቆ	-7781
ሬ	-7782
ሻ	-7783
ዚ	-7784
ዴ	-7785
ዛ	-7786
ዜ	-7787
ቡ	-7788
ቁ	-7789
ሸ	-7790
e	-7791
ጎ	-7792
ጨ	-7793
ቻ	-7794
a	-7795
ዉ	-7796
ጭ	-7797
ፊ	-7798
ኩ	-7799
ቦ	-7800
ዱ	-7801
i	-7802
ጫ	-7803
ቹ	-7804
o	-7805
ሜ	-7806
ዶ	-7807
ኦ	-7808
ጊ	-7809
ፖ	-7810
ዩ	-7811
ጂ	-7812
t	-7813
ጃ	-7814
ጸ	-7815
ኒ	-7816
ጻ	-7817
ቴ	-7818
ጡ	-7819
ዙ	-7820
፤	-7821
ሥ	-7822
ዬ	-7823
ቂ	-7824
n	-7825
s	-7826
ኤ	-7827
ሴ	-7828
r	-7829
ፓ	-7830
ፉ	-7831
ኣ	-7832
ቋ	-7833
ኪ	-7834
ጦ	-7835
ሶ	-7836
ፕ	-7837
ኞ	-7838
l	-7839
ጆ	-7840
ሠ	-7841
ዞ	-7842
ጌ	-7843
ጤ	-7844
h	-7845
ፎ	-7846
ቄ	-7847
ቼ	-7848
ፌ	-7849
ቷ	-7850
m	-7851
ኘ	-7852
d	-7853
u	-7854
ጓ	-7855
_	-7856
c	-7857
p	-7858
ኋ	-7859
ቺ	-7860
ኳ	-7861
፥	-7862
y	-7863
ቨ	-7864
ሺ	-7865
ጹ	-7866
ኬ	-7867
ጁ	-7868
ኙ	-7869
g	-7870
ቪ	-7871
ሂ	-7872
ጪ	-7873
ሯ	-7874
A	-7875
T	-7876
f	-7877
w	-7878
b	-7879
k	-7880
ሏ	-7881
ሹ	-7882
ኡ	-7883
I	-7884
ሾ	-7885
ሣ	-7886
v	-7887
M	-7888
ኸ	-7889
ኗ	-7890
P	-7891
ሷ	-7892
E	-7893
ዥ	-7894
ጮ	-7895
B	-7896
F	-7897
ፒ	-7898
D	-7899
N	-7900
O	-7901
ጄ	-7902
L	-7903
C	-7904
ሟ	-7905
ቾ	-7906
ጢ	-7907
ጲ	-7908
S	-7909
ጩ	-7910
ቧ	-7911
ኧ	-7912
H	-7913
ቿ	-7914
W	-7915
ሼ	-7916
፦	-7917
R	-7918
G	-7919
ዪ	-7920
V	-7921
ጧ	-7922
ጾ	-7923
ቭ	-7924
ዠ	-7925
ጼ	-7926
ፏ	-7927
ቫ	-7928
ዷ	-7929
ሦ	-7930
ኹ	-7931
ኽ	-7932
ጺ	-7933
J	-7934
x	-7935
ሡ	-7936
ዟ	-7937
፩	-7938
Z	-7939
ዣ	-7940
ጳ	-7941
ሗ	-7942
ኚ	-7943
Y	-7944
ፔ	-7945
K	-7946
ቬ	-7947
ዌ	-7948
U	-7949
ኻ	-7950
ኼ	-7951
ኾ	-7952
ዢ	-7953
ጬ	-7954
ኜ	-7955
ፐ	-7956
人	-7957
ቐ	-7958
ዽ	-7959
j	-7960
ሢ	-7961
ሿ	-7962
ዤ	-7963
ጴ	-7964
፳	-7965
z	-7966
፪	-7967
፬	-7968
፮	-7969
፲	-7970
ጏ	-7971
ፑ	-7972
፧	-7973
ጐ	-7974
፫	-7975
ቓ	-7976
ጇ	-7977
ጿ	-7978
X	-7979
ዦ	-7980
Q	-7981
q	-7982
ቌ	-7983
ኲ	-7984
ዃ	-7985
ጰ	-7986
፯	-7987
ட	-7988
ሤ	-7989
ሧ	-7990
ቑ	-7991
ቕ	-7992
ቖ	-7993
ቮ	-7994
ኇ	-7995
